{"version":"1.0","truncation":null,"padding":null,"added_tokens":[{"id":0,"content":"<pad>","single_word":false,"lstrip":false,"rstrip":false,"normalized":false,"special":true},{"id":1,"content":"<unk>","single_word":false,"lstrip":false,"rstrip":false,"normalized":false,"special":true},{"id":2,"content":"<bos>","single_word":false,"lstrip":false,"rstrip":false,"normalized":false,"special":true},{"id":3,"content":"<eos>","single_word":false,"lstrip":false,"rstrip":false,"normalized":false,"special":true},{"id":4,"content":"<sep>","single_word":false,"lstrip":false,"rstrip":false,"normalized":false,"special":true},{"id":5,"content":"<think>","single_word":false,"lstrip":false,"rstrip":false,"normalized":false,"special":true},{"id":6,"content":"</think>","single_word":false,"lstrip":false,"rstrip":false,"normalized":false,"special":true},{"id":7,"content":"<tool_call>","single_word":false,"lstrip":false,"rstrip":false,"normalized":false,"special":true},{"id":8,"content":"</tool_call>","single_word":false,"lstrip":false,"rstrip":false,"normalized":false,"special":true},{"id":9,"content":"<tool_result>","single_word":false,"lstrip":false,"rstrip":false,"normalized":false,"special":true},{"id":10,"content":"</tool_result>","single_word":false,"lstrip":false,"rstrip":false,"normalized":false,"special":true},{"id":11,"content":"<|system|>","single_word":false,"lstrip":false,"rstrip":false,"normalized":false,"special":true},{"id":12,"content":"<|user|>","single_word":false,"lstrip":false,"rstrip":false,"normalized":false,"special":true},{"id":13,"content":"<|assistant|>","single_word":false,"lstrip":false,"rstrip":false,"normalized":false,"special":true},{"id":14,"content":"<|ask|>","single_word":false,"lstrip":false,"rstrip":false,"normalized":false,"special":true},{"id":15,"content":"<|image|>","single_word":false,"lstrip":false,"rstrip":false,"normalized":false,"special":true}],"normalizer":null,"pre_tokenizer":{"type":"ByteLevel","add_prefix_space":false,"trim_offsets":true,"use_regex":true},"post_processor":null,"decoder":{"type":"ByteLevel","add_prefix_space":true,"trim_offsets":true,"use_regex":true},"model":{"type":"BPE","dropout":null,"unk_token":"<unk>","continuing_subword_prefix":null,"end_of_word_suffix":null,"fuse_unk":false,"byte_fallback":false,"ignore_merges":false,"vocab":{"<pad>":0,"<unk>":1,"<bos>":2,"<eos>":3,"<sep>":4,"<think>":5,"</think>":6,"<tool_call>":7,"</tool_call>":8,"<tool_result>":9,"</tool_result>":10,"<|system|>":11,"<|user|>":12,"<|assistant|>":13,"<|ask|>":14,"<|image|>":15,"!":16,"\"":17,"#":18,"$":19,"%":20,"&":21,"'":22,"(":23,")":24,"*":25,"+":26,",":27,"-":28,".":29,"/":30,"0":31,"1":32,"2":33,"3":34,"4":35,"5":36,"6":37,"7":38,"8":39,"9":40,":":41,";":42,"<":43,"=":44,">":45,"?":46,"@":47,"A":48,"B":49,"C":50,"D":51,"E":52,"F":53,"G":54,"H":55,"I":56,"J":57,"K":58,"L":59,"M":60,"N":61,"O":62,"P":63,"Q":64,"R":65,"S":66,"T":67,"U":68,"V":69,"W":70,"X":71,"Y":72,"Z":73,"[":74,"\\":75,"]":76,"^":77,"_":78,"`":79,"a":80,"b":81,"c":82,"d":83,"e":84,"f":85,"g":86,"h":87,"i":88,"j":89,"k":90,"l":91,"m":92,"n":93,"o":94,"p":95,"q":96,"r":97,"s":98,"t":99,"u":100,"v":101,"w":102,"x":103,"y":104,"z":105,"{":106,"|":107,"}":108,"~":109,"\u00a1":110,"\u00a2":111,"\u00a3":112,"\u00a4":113,"\u00a5":114,"\u00a6":115,"\u00a7":116,"\u00a8":117,"\u00a9":118,"\u00aa":119,"\u00ab":120,"\u00ac":121,"\u00ae":122,"\u00af":123,"\u00b0":124,"\u00b1":125,"\u00b2":126,"\u00b3":127,"\u00b4":128,"\u00b5":129,"\u00b6":130,"\u00b7":131,"\u00b8":132,"\u00b9":133,"\u00ba":134,"\u00bb":135,"\u00bc":136,"\u00bd":137,"\u00be":138,"\u00bf":139,"\u00c0":140,"\u00c1":141,"\u00c2":142,"\u00c3":143,"\u00c4":144,"\u00c5":145,"\u00c6":146,"\u00c7":147,"\u00c8":148,"\u00c9":149,"\u00ca":150,"\u00cb":151,"\u00cc":152,"\u00cd":153,"\u00ce":154,"\u00cf":155,"\u00d0":156,"\u00d1":157,"\u00d2":158,"\u00d3":159,"\u00d4":160,"\u00d5":161,"\u00d6":162,"\u00d7":163,"\u00d8":164,"\u00d9":165,"\u00da":166,"\u00db":167,"\u00dc":168,"\u00dd":169,"\u00de":170,"\u00df":171,"\u00e0":172,"\u00e1":173,"\u00e2":174,"\u00e3":175,"\u00e4":176,"\u00e5":177,"\u00e6":178,"\u00e7":179,"\u00e8":180,"\u00e9":181,"\u00ea":182,"\u00eb":183,"\u00ec":184,"\u00ed":185,"\u00ee":186,"\u00ef":187,"\u00f0":188,"\u00f1":189,"\u00f2":190,"\u00f3":191,"\u00f4":192,"\u00f5":193,"\u00f6":194,"\u00f7":195,"\u00f8":196,"\u00f9":197,"\u00fa":198,"\u00fb":199,"\u00fc":200,"\u00fd":201,"\u00fe":202,"\u00ff":203,"\u0100":204,"\u0101":205,"\u0102":206,"\u0103":207,"\u0104":208,"\u0105":209,"\u0106":210,"\u0107":211,"\u0108":212,"\u0109":213,"\u010a":214,"\u010b":215,"\u010c":216,"\u010d":217,"\u010e":218,"\u010f":219,"\u0110":220,"\u0111":221,"\u0112":222,"\u0113":223,"\u0114":224,"\u0115":225,"\u0116":226,"\u0117":227,"\u0118":228,"\u0119":229,"\u011a":230,"\u011b":231,"\u011c":232,"\u011d":233,"\u011e":234,"\u011f":235,"\u0120":236,"\u0121":237,"\u0122":238,"\u0123":239,"\u0124":240,"\u0125":241,"\u0126":242,"\u0127":243,"\u0128":244,"\u0129":245,"\u012a":246,"\u012b":247,"\u012c":248,"\u012d":249,"\u012e":250,"\u012f":251,"\u0130":252,"\u0131":253,"\u0132":254,"\u0133":255,"\u0134":256,"\u0135":257,"\u0136":258,"\u0137":259,"\u0138":260,"\u0139":261,"\u013a":262,"\u013b":263,"\u013c":264,"\u013d":265,"\u013e":266,"\u013f":267,"\u0140":268,"\u0141":269,"\u0142":270,"\u0143":271,"\u0120\u0120":272,"\u0120t":273,"in":274,"\u0120a":275,"he":276,"re":277,"on":278,"er":279,"at":280,"\u0120\u0120\u0120\u0120":281,"\u0120the":282,"\u0120s":283,"en":284,"es":285,"or":286,"\u0120c":287,"an":288,"al":289,"it":290,"is":291,"\u0120o":292,"ing":293,"\u0120p":294,"\u0120w":295,"\u0120f":296,"nd":297,"ed":298,"ion":299,"ar":300,"\u0120in":301,"ou":302,"\u0120b":303,"ic":304,"\u0120of":305,"\u0120and":306,"\u0120m":307,"le":308,"\u0120d":309,"\u0120to":310,"ro":311,"ent":312,"st":313,"ct":314,"\u0120\u0120\u0120":315,"as":316,"\u0120re":317,"il":318,"\u0120e":319,"\u0120h":320,"om":321,"el":322,"et":323,"\u0120th":324,"\u0120l":325,"ation":326,"\u0120n":327,"\u0120\u0120\u0120\u0120\u0120\u0120\u0120\u0120":328,"ce":329,"id":330,"ol":331,"ur":332,"im":333,"\u0120T":334,"am":335,"se":336,"ut":337,"ve":338,"ch":339,"ig":340,"\u0120is":341,"ot":342,"\u0120g":343,"\u00e2\u0122":344,"\u0120for":345,"ly":346,"\u0120S":347,"ra":348,"ow":349,"\u0120A":350,"\u0120u":351,"\u0120st":352,"if":353,"ul":354,"\u0120C":355,"ir":356,"ag":357,"ver":358,"\u0120be":359,"\u0120(":360,"\u0120I":361,"ess":362,"ad":363,"od":364,"\u0120y":365,"\u0120on":366,"\u0120\u0120\u0120\u0120\u0120\u0120\u0120":367,"\u0120con":368,"ith":369,"our":370,"\u0120pro":371,"ay":372,"\u0120as":373,"\u0120that":374,"ment":375,"\u010a\u0120\u0120\u0120":376,"ate":377,"ab":378,"pe":379,"ter":380,"\u0120with":381,"\u010a\u0120\u0120\u0120\u0120\u0120\u0120\u0120":382,"un":383,"\u01201":384,"th":385,"oc":386,"ers":387,"--":388,"est":389,"ist":390,"\u0120v":391,"\u0120al":392,"her":393,"\u0120or":394,"\u0120an":395,"\u0120are":396,"\u0120M":397,"em":398,"\u0120P":399,"res":400,"\u0120it":401,"ac":402,"us":403,"ri":404,"op":405,"qu":406,"\u0120=":407,"ity":408,"\u0120ex":409,"\u0120de":410,"um":411,"\u0120The":412,"and":413,"\u0120com":414,"\u0120B":415,"\u0120he":416,"age":417,"ect":418,"\u010a\u0120\u0120\u0120\u0120\u0120\u0120\u0120\u0120":419,"\u0120wh":420,"ies":421,"ort":422,"00":423,"ain":424,"\u0120can":425,"pp":426,"ke":427,"\u0120\"":428,"\u010a\u0109":429,"ore":430,"os":431,"\u0120su":432,"\u0120<":433,"iv":434,"nt":435,"\u0120D":436,"ial":437,"rom":438,"\u00e2\u0122\u013b":439,"pt":440,"ive":441,"ant":442,"ill":443,"\u0120en":444,"\u0120R":445,"igh":446,"\u0120H":447,"\u0120F":448,"\u0120E":449,"ere":450,"ure":451,"\u0120r":452,"\u0120N":453,"\u0120W":454,"\u0120ch":455,"ans":456,"\u0120{":457,"\u0120le":458,"ine":459,"ud":460,"\u01202":461,"\u0120by":462,"og":463,"\u0120ne":464,"ions":465,"all":466,"art":467,"\u0120L":468,"ld":469,"pl":470,"\u0120from":471,"//":472,"ru":473,"\u0120at":474,"\u0120se":475,"iz":476,"\u0120you":477,"ame":478,");":479,"per":480,"ical":481,"\u0120G":482,"ff":483,"\u01200":484,"\u0120'":485,"\u0120im":486,"act":487,"ge":488,"\u0120was":489,"\u0120ha":490,"ight":491,"ult":492,"du":493,"\u0120this":494,"\u0120not":495,"rou":496,"\u0120sh":497,"cl":498,"are":499,"\u0120int":500,"\u0120*":501,"ast":502,"end":503,"\u0120O":504,"out":505,"\u0120pl":506,"able":507,"ex":508,"ost":509,"\u0120us":510,"ard":511,"\u0120ad":512,"\u0120your":513,"orm":514,"ated":515,"rans":516,"ap":517,"The":518,"ak":519,"\u0120\u00e2\u0122":520,"ip":521,"),":522,"\u0120their":523,"ction":524,"\u0120-":525,"##":526,"ance":527,"ations":528,"\u0120cont":529,"\u0120res":530,"ell":531,"\u0120we":532,"cc":533,"ign":534,"ib":535,"ub":536,"\u0120have":537,"\u0120wor":538,"ue":539,"\u0120comp":540,"ome":541,"ich":542,"\u0120U":543,"ust":544,"----":545,"ther":546,"gh":547,"ire":548,"',":549,"ide":550,"\u0120ab":551,"ile":552,"port":553,"ass":554,"con":555,"ack":556,"ew":557,"\u010a\u0120":558,"ource":559,"ind":560,"ous":561,"\u0120Th":562,"elf":563,"\u0120whe":564,"ef":565,"so":566,"\u010a\u0109\u0109":567,"vel":568,"ry":569,"ould":570,"ong":571,"urn":572,"\u0120In":573,"int":574,"ary":575,"ep":576,"ild":577,"ress":578,"\u0120k":579,"\u0120cl":580,"**":581,"ase":582,"ks":583,"\u0120}":584,"\u0120all":585,"\u010a\u0120\u0120\u0120\u0120\u0120\u0120\u0120\u0120\u0120\u0120\u0120":586,"ual":587,"\u0120dis":588,"\u0120J":589,"ia":590,"\u0120which":591,"ime":592,"ater":593,"ach":594,"av":595,"form":596,"one":597,"ition":598,"ice":599,"\u0120if":600,"ood":601,"ces":602,"\u0120more":603,"ence":604,"\u0120also":605,"essage":606,"ace":607,"ents":608,"\u0120te":609,"\u0120has":610,"\u0120man":611,"\u0120they":612,"\u0120un":613,"ord":614,"ens":615,"ber":616,"\u0120will":617,"ake":618,"\u0120V":619,"oo":620,"=\"":621,"ang":622,"\u012019":623,"\u0120j":624,"ata":625,"reat":626,"ype":627,"ors":628,"==":629,"\u0120pre":630,"'s":631,"ail":632,"</":633,"ount":634,"ear":635,"\u0120|":636,"\u0120ar":637,"\u0120sy":638,"com":639,"\u0120St":640,"()":641,"source":642,"ory":643,"message":644,"\u0120comm":645,"01":646,"\u0120This":647,"nder":648,"ific":649,"\u0120per":650,"pec":651,"\u0120K":652,"\u0120do":653,"ject":654,"\u0120but":655,"\u0120other":656,"ely":657,"rit":658,"\u0120app":659,"turn":660,"\u0120me":661,"\u0120sc":662,"\u0120ev":663,"ob":664,"lation":665,"erv":666,"ric":667,"\u0120out":668,"\",":669,"loc":670,"In":671,"ments":672,"vers":673,"trans":674,"::":675,"\u0120part":676,"\u0120its":677,"\u0120It":678,"\u0120sp":679,"\u0120ro":680,"\u0120tra":681,"ps":682,"alth":683,"ish":684,"lect":685,"get":686,"\u00e2\u0122\u013f":687,"lic":688,"ound":689,"pro":690,"clud":691,"ring":692,"own":693,"ert":694,"\u0120so":695,"ode":696,"\u010a\u0120\u0120\u0120\u0120":697,"\u0120`":698,"ath":699,"ple":700,"cess":701,"\u0120li":702,"ext":703,"\u0120qu":704,").":705,"\u0120em":706,"translation":707,"ER":708,"\u0120\u0120\u0120\u0120\u0120\u0120\u0120\u0120\u0120\u0120\u0120\u0120\u0120\u0120\u0120\u0120":709,"\u0120[":710,"ree":711,"use":712,"ck":713,"\u0120one":714,"cre":715,"ities":716,"olog":717,"ient":718,"tern":719,"\u0120into":720,"\u0120hel":721,"ose":722,"\u0120&":723,"stem":724,"\u0120them":725,"ph":726,"low":727,"iff":728,"\u0120$":729,"ys":730,"hed":731,"ings":732,"\u0120may":733,"\u0120acc":734,"ates":735,"\u0120over":736,"\u0120eff":737,"ian":738,"err":739,"\u0120under":740,"\u0120cons":741,"\u01203":742,"very":743,"\u0120Ch":744,"ility":745,"\u0120use":746,"\u0120were":747,"\u0120about":748,"\u0120these":749,"\u0120pe":750,"\u0120up":751,"ie":752,"\u0120new":753,"row":754,"ool":755,"ize":756,"ating":757,"\u0120col":758,"\u0120prov":759,"rib":760,"\u0120includ":761,"\u0120stud":762,"\u0120var":763,"\u0120work":764,"ren":765,"ning":766,"\u0120time":767,"\u0120when":768,"\u0120\u00e2\u0122\u013e":769,"\u0120add":770,"ove":771,"ite":772,"\u0120act":773,"ov":774,"uring":775,"\u0120his":776,"\u0120ind":777,"\u0120des":778,"we":779,"ll":780,"rough":781,"IN":782,"te":783,"\u0120self":784,"ays":785,"ious":786,"\u0120who":787,"\u0120such":788,"\u0120need":789,"\u0120health":790,"les":791,"ons":792,"velop":793,"ular":794,"--------":795,"ener":796,"\u0120ass":797,"\u0120diff":798,"tt":799,"ced":800,"ally":801,"\u0120ag":802,"\u0120off":803,"\u0109\u0109":804,"ruct":805,"\u0120Y":806,"\u0120bet":807,"\u0120go":808,"ark":809,"pect":810,"ms":811,"\u0120spec":812,"ople":813,"eg":814,"ures":815,"\u0120reg":816,"St":817,"ont":818,"\u0120rec":819,"\u0120how":820,"\u0120kn":821,"..":822,"\u010a\u010a":823,"vent":824,"irst":825,"ange":826,"eth":827,"\u0120fe":828,"unction":829,"\u0120sa":830,"als":831,"ook":832,"\u0120produ":833,"\u0120some":834,"\u0120help":835,"\u0120val":836,"\u0120system":837,"ful":838,"ract":839,"de":840,"\u0120ra":841,"\u010a\u0120\u0120\u0120\u0120\u0120\u0120\u0120\u0120\u0120\u0120\u0120\u0120\u0120\u0120\u0120":842,"pport":843,"ten":844,"mer":845,"its":846,"####":847,"ational":848,"ics":849,"ise":850,"red":851,"old":852,"\u0120like":853,"\u0120rel":854,"\u0120than":855,"chn":856,"hen":857,"\u0120bec":858,"\u0120//":859,"\u010a\u0120\u0120\u0120\u0120\u0120":860,"\u0120our":861,"\u0120used":862,"\u0120trans":863,"\u0120develop":864,"ec":865,"ss":866,"\u0120def":867,"iss":868,"ential":869,"\u0120bu":870,"\u0120year":871,"\u0120data":872,"\u0120any":873,"ough":874,"ative":875,"\u0120line":876,"\u0120been":877,"/>":878,"\u0120sign":879,"\u0120there":880,"ft":881,"\u0120inst":882,"ne":883,"\u0120through":884,"ased":885,"\u0120requ":886,"\u0120people":887,"\u0120di":888,"ES":889,"\u0120return":890,"round":891,"oth":892,"\u0120:":893,"\u0120ke":894,"19":895,"ause":896,"ption":897,"ower":898,"ues":899,"cy":900,"\"/>":901,"\u0120\u00e2\u0122\u0135":902,"\u0120mod":903,"fter":904,"ram":905,"eld":906,"\u0120rem":907,"\u0120inter":908,"\u0120ph":909,"\u0120ob":910,"\u0120set":911,"\u0120inf":912,"val":913,"\u0120import":914,"\u0120most":915,"\u010a\u0120\u0120\u0120\u0120\u0120\u0120\u0120\u0120\u0120\u0120\u0120\u0120\u0120\u0120\u0120\u0120":916,"ink":917,"ng":918,"\u0120only":919,"erg":920,"\u0120</":921,"\u0120pr":922,"\u01204":923,"name":924,"\u0120Un":925,"\u0120att":926,"sh":927,"ick":928,"oss":929,"ible":930,"ices":931,"\u0120bl":932,"\u0120first":933,"(\"":934,"\u0120fl":935,"\u0120child":936,"ix":937,"arch":938,"aw":939,"put":940,"ied":941,"\u0120co":942,"ork":943,"yp":944,"\u0120differe":945,"\u010a\u010a\u0120\u0120\u0120":946,"erm":947,"\u0120tw":948,"\u0120high":949,"eng":950,"oint":951,"\u0120inv":952,"ield":953,"ins":954,"\u0120ac":955,"io":956,"ural":957,"ting":958,"up":959,"self":960,"\u0120am":961,"\u0120techn":962,"aking":963,"\u0120exper":964,"\u0120err":965,"ts":966,"NT":967,"iron":968,"\u0120where":969,"\u0120He":970,"\u0120process":971,"ribut":972,"oy":973,"\u0120get":974,"\u0120no":975,"****":976,"hes":977,"ife":978,"\u0120well":979,"\u0120loc":980,"\u0120had":981,"ween":982,"\u0120test":983,"iew":984,"\u0120sub":985,"ull":986,"gan":987,"\u0120effect":988,"AT":989,"\u0120pub":990,"stand":991,"\u0120num":992,"ience":993,"ond":994,"\u0120should":995,"\u01205":996,"ax":997,"\u0120make":998,"ness":999,"UL":1000,"\u0120cre":1001,"ines":1002,"ished":1003,"02":1004,"uc":1005,"\u0120type":1006,"ature":1007,"\u0120then":1008,"====":1009,"\u0120pol":1010,"AL":1011,"\u0120201":1012,"\u0120water":1013,"sc":1014,"ug":1015,"viron":1016,"\u0120sm":1017,"ON":1018,"\u0120lear":1019,"\u0120/":1020,"\u0120pers":1021,"AR":1022,"\u0120#":1023,"ident":1024,"\u0120many":1025,"\u0120ref":1026,"\u0120exp":1027,"wn":1028,"ety":1029,"\u0120sur":1030,"\u0120+":1031,"par":1032,"location":1033,"\u0120between":1034,"to":1035,"\u0120det":1036,"ered":1037,"('":1038,"\u0120lead":1039,"ble":1040,"\u0120function":1041,"\u0120form":1042,"\u0120med":1043,"arg":1044,"ants":1045,"\u0120200":1046,"ages":1047,"ever":1048,"\u0120what":1049,"ict":1050,"))":1051,"\u0120two":1052,"ade":1053,"\u0120result":1054,"ology":1055,"\u0120commun":1056,"ward":1057,"ized":1058,"\u0120main":1059,"\u0120would":1060,"\u0120play":1061,"co":1062,"ily":1063,"ern":1064,"\u0120fil":1065,"\u0120const":1066,"\u0120pres":1067,"\u0120ed":1068,"\u0120support":1069,"\u0120aut":1070,"read":1071,"\u0120incre":1072,"fore":1073,"set":1074,"ited":1075,"\u0120Pro":1076,"\u0120sk":1077,"\u0120imp":1078,"atch":1079,"\u0120str":1080,"\u0120inform":1081,"chool":1082,"ists":1083,"ection":1084,"arm":1085,"\u0120different":1086,"):":1087,"\u0120ext":1088,"cial":1089,"\u0120gener":1090,"\u0120dist":1091,"\u0120exam":1092,"ality":1093,"\u0120soc":1094,"ien":1095,"\u0120_":1096,"dition":1097,"ivid":1098,"\u0120cur":1099,"\u0120long":1100,"ically":1101,"\u0120let":1102,"\u0120serv":1103,"vironment":1104,"return":1105,"ives":1106,"\u0120her":1107,"\u0120el":1108,"\u0120redu":1109,"ash":1110,"\u0120*/":1111,"\u0120provid":1112,"\u0120Com":1113,"ody":1114,"\u0120che":1115,"irect":1116,"led":1117,"\u0120often":1118,"ution":1119,"\u0120after":1120,"\u0120while":1121,"\u0120prog":1122,"\u0120ent":1123,"ollow":1124,"://":1125,"\u0120ins":1126,"\u0120sim":1127,"Th":1128,"\u0120art":1129,"ense":1130,"\u0120dec":1131,"land":1132,"\u0120conf":1133,"\u0120resp":1134,"oid":1135,"tain":1136,"->":1137,"10":1138,"riv":1139,"\u0120pat":1140,"RE":1141,"\u0120call":1142,"iqu":1143,"\u0120during":1144,"\u0120car":1145,"els":1146,"ases":1147,"\u0120comple":1148,"\u0120ear":1149,"pr":1150,"LE":1151,"def":1152,"rent":1153,"\u0120ca":1154,"\u0120av":1155,"\u0120world":1156,"ethod":1157,"cept":1158,"ify":1159,"\u0120min":1160,"ID":1161,"\u0120ens":1162,"oad":1163,"32":1164,"\u0120rese":1165,"amp":1166,"\u0120design":1167,"any":1168,"12":1169,"\u0120just":1170,"\u0120found":1171,"\u0120could":1172,"hat":1173,"cing":1174,"rue":1175,"meric":1176,"\u0120dep":1177,"0000":1178,"ism":1179,"\u0120years":1180,"\u0120even":1181,"ale":1182,"\u0120prot":1183,"\u0120important":1184,"\u0120!":1185,"\u0120end":1186,"\u0120sol":1187,"\u0120allow":1188,"ST":1189,"\u0120using":1190,"ital":1191,"\u0120grow":1192,"ability":1193,"\u01206":1194,"\u010a\u0109\u0109\u0109":1195,"\u0120know":1196,"\u0120appro":1197,"\u0120partic":1198,"\u0120hum":1199,"inal":1200,"ional":1201,"other":1202,"ock":1203,"ty":1204,"ering":1205,"\u0120Al":1206,"ined":1207,"ividual":1208,"rol":1209,"\u0120life":1210,"\u0120count":1211,"ead":1212,"\u0120expl":1213,"ier":1214,"\u0120mon":1215,"ision":1216,"\u0120ser":1217,"\u0120understand":1218,"\u0120require":1219,"\u0120way":1220,"work":1221,"\u0120level":1222,"\u0120cent":1223,"\u0120They":1224,"\u0120person":1225,"\u0120see":1226,"line":1227,"\u0120These":1228,"rr":1229,"\u0120impro":1230,"\u0120For":1231,"\u0120environment":1232,"\u0120read":1233,"\u0120follow":1234,"\u0120each":1235,"ergy":1236,"\u0120care":1237,"\u0120back":1238,"hip":1239,"\u0120adv":1240,"ars":1241,"roup":1242,"\u0120ris":1243,"000":1244,"ivers":1245,"\u0120both":1246,"itions":1247,"\u0120build":1248,"\u0120pract":1249,"\u0120If":1250,"uch":1251,"\u0120gl":1252,"\u0120every":1253,"ery":1254,"\u0120\"$":1255,"eren":1256,"\u0120Ar":1257,"lock":1258,"ets":1259,"\u0120start":1260,"ee":1261,"\u0120signific":1262,"Ex":1263,"ok":1264,"\u0120individual":1265,"cent":1266,"ault":1267,"\u0120name":1268,"\u012018":1269,"\u0120fact":1270,"\u0120hand":1271,"\u0120As":1272,"ULL":1273,"und":1274,"\u0120own":1275,"ware":1276,"ually":1277,"ted":1278,"\u0120information":1279,"ved":1280,"\u0120food":1281,"\u0120being":1282,"\u0120activ":1283,"\u0120right":1284,"\u0120pot":1285,"\u0120How":1286,"\u0120cle":1287,"\u0120including":1288,"atic":1289,"cur":1290,"11":1291,"\u0120bel":1292,"\u00e2\u0122\u0135":1293,"orn":1294,"ving":1295,"ather":1296,"\u0120number":1297,"\u0120gu":1298,"\u0120rep":1299,"SE":1300,"\u0120treat":1301,"\u0120writ":1302,"\u0120mem":1303,"\u0120class":1304,"\":":1305,"\")":1306,"\u0120opt":1307,"\u0120Ad":1308,"``":1309,"ron":1310,"unc":1311,"ves":1312,"type":1313,"\u0120those":1314,"\u0120char":1315,"\u0120power":1316,"ames":1317,"ateg":1318,"\u0120Americ":1319,"\u0120hist":1320,"\u0120pop":1321,"\u0120fam":1322,"\u0120:=":1323,"\u0120oper":1324,"\u0120prof":1325,"\u0120Ind":1326,"ining":1327,"pen":1328,"ox":1329,"\u0120show":1330,"ral":1331,"\u0120before":1332,"\u0120eng":1333,"\u0120organ":1334,"rap":1335,"\u0120struct":1336,"\u0120saf":1337,"\u0120i":1338,"ator":1339,"air":1340,"64":1341,"ccess":1342,"der":1343,"aterial":1344,"OR":1345,"for":1346,"\u0120typ":1347,"\u0120par":1348,"\u0120children":1349,"\u0120An":1350,"\u0120find":1351,"\u0120because":1352,"\u010a\u0120\u0120\u0120\u0120\u0120\u0120\u0120\u0120\u0120\u0120\u0120\u0120\u0120\u0120\u0120\u0120\u0120\u0120\u0120\u0120\u0120\u0120\u0120\u0120":1353,"ources":1354,"\u010a\u0109\u0109\u0109\u0109":1355,"\u0120@":1356,"vern":1357,"imes":1358,"cho":1359,"\u0120key":1360,"=\"+":1361,"ran":1362,"\u0120contin":1363,"----------------":1364,"\u0120she":1365,"\u010a\u0120\u0120\u0120\u0120\u0120\u0120\u0120\u0120\u0120\u0120\u0120\u0120\u0120\u0120\u0120\u0120\u0120\u0120\u0120":1366,"\u0120does":1367,"\u0120ap":1368,"\u0120state":1369,"\u0120students":1370,"\u0120Re":1371,"\u0120We":1372,"\u0120ben":1373,"raph":1374,"att":1375,"iness":1376,"test":1377,"\u0120%":1378,"\u0120Ex":1379,"\u0120consid":1380,"\u01208":1381,"ross":1382,"oot":1383,"__":1384,"gg":1385,"\u0120prom":1386,"ds":1387,"IT":1388,"\u0120ele":1389,"\u0120significant":1390,"\u0120value":1391,"app":1392,"iety":1393,"ization":1394,"itive":1395,"\u0120.":1396,"ental":1397,"ann":1398,"\u0120elect":1399,"\u0120method":1400,"\u0120energy":1401,"\u0120program":1402,"\u0120pos":1403,"\u0120again":1404,"akes":1405,"\u0120met":1406,"\u0120De":1407,"\u0120proper":1408,"\u0120perform":1409,"\u01207":1410,"\u0120iss":1411,"\u0120--":1412,"\u0120made":1413,"\u0120ess":1414,"\u0120direct":1415,"nect":1416,"ulation":1417,"angu":1418,"\u0120small":1419,"16":1420,"\u0120vis":1421,"ray":1422,"\u0120school":1423,"ffect":1424,"\u0120educ":1425,"\u0120||":1426,"\u0120est":1427,"ince":1428,"ium":1429,"\u0120provide":1430,"\u0120tem":1431,"\u0120common":1432,"\u0120NULL":1433,"ave":1434,"\u0120body":1435,"\u0120New":1436,"\u0120must":1437,"ration":1438,"\u0120disc":1439,"\u0120project":1440,"ared":1441,"cont":1442,"\u0120product":1443,"();":1444,"\u0120proble":1445,"\u0120==":1446,"\u0120same":1447,"view":1448,"oun":1449,"li":1450,"\u0120ident":1451,"acter":1452,"htt":1453,"OT":1454,"\u0120impact":1455,"18":1456,"20":1457,"\u0120material":1458,"ries":1459,"\u0120You":1460,"arent":1461,"\u0120chang":1462,"SER":1463,"\u0120create":1464,"\u0120take":1465,"way":1466,"\u0120cult":1467,"\u0120sym":1468,"\u0120include":1469,"\u012010":1470,"aj":1471,"pos":1472,"\u0120Sc":1473,"\u0120fin":1474,"bs":1475,"\u0120>":1476,"\u0120bre":1477,"ME":1478,"ified":1479,"201":1480,"Pro":1481,"ah":1482,"\u0120beh":1483,"########":1484,"ven":1485,"ters":1486,"by":1487,"\u0120equ":1488,"ote":1489,"ively":1490,"\u0120development":1491,"\u0120run":1492,"ason":1493,"\u0120good":1494,"\u0120very":1495,"\u0120access":1496,"\u0120cor":1497,"ains":1498,"Err":1499,"\u0120pass":1500,"ner":1501,"\u010a\u010a\u0120\u0120\u0120\u0120\u0120\u0120\u0120":1502,"This":1503,"\u0120public":1504,"\u0120=>":1505,"\u0120benef":1506,"the":1507,"uss":1508,"\u0120without":1509,"yn":1510,"\u0120creat":1511,"\u0120string":1512,"\u0120around":1513,"ination":1514,"\u0120potential":1515,"ills":1516,"Ch":1517,"let":1518,"\u0120poss":1519,"\u0120list":1520,"\u00e2\u0122\u0136":1521,"oms":1522,"\u0120example":1523,"comm":1524,"\u0120research":1525,"ats":1526,"agement":1527,"\u0120down":1528,"\u0120mark":1529,".\u00e2\u0122\u013f":1530,"be":1531,"az":1532,"ior":1533,"ouse":1534,"CT":1535,"rain":1536,"ocus":1537,"ury":1538,"\u0120dev":1539,"lu":1540,"ask":1541,"\u0120gre":1542,"\u0120my":1543,"\u0120learning":1544,"\u0120within":1545,"Name":1546,"It":1547,"\u0120Se":1548,"alse":1549,"15":1550,"lish":1551,"oci":1552,"\u0120known":1553,"],":1554,"\u0120human":1555,"\u0120Con":1556,"\u0120INT":1557,"ush":1558,"\u0120study":1559,"atus":1560,"requ":1561,"\u0120land":1562,"\u0120less":1563,"\u0120stand":1564,"\u0120dem":1565,"of":1566,"\u0120indu":1567,"\u0120chall":1568,"\u0120much":1569,"ling":1570,"mod":1571,"add":1572,"fig":1573,"\u0120del":1574,"\u0120various":1575,"\u0120social":1576,"\u0120Sh":1577,"iversity":1578,"ule":1579,"conom":1580,"mp":1581,"Res":1582,"\u0120making":1583,"\u0120invol":1584,"omen":1585,"},":1586,"\u0120occ":1587,"\u0120else":1588,"\u0120field":1589,"\u0120systems":1590,"\u0120tool":1591,"ser":1592,"\u0120dise":1593,"data":1594,"\u0120local":1595,"30":1596,"\u0120point":1597,"day":1598,"\u0120anal":1599,"\u0120bus":1600,"\u01209":1601,"struct":1602,"less":1603,"\u0120air":1604,"(&":1605,"cond":1606,"\u0120applic":1607,"\u0120Q":1608,".\"":1609,"\u0120current":1610,"Re":1611,"\u0120now":1612,"\u0120cap":1613,"\u0120essential":1614,"\u0120look":1615,"ances":1616,"\u0120mus":1617,"arge":1618,"\u0120plan":1619,"\u0120pur":1620,"ially":1621,"ately":1622,"face":1623,"25":1624,"\u0120role":1625,"EN":1626,"\u0120day":1627,"ploy":1628,"\u0120By":1629,"\u0120specific":1630,"arget":1631,"14":1632,"ogn":1633,"********":1634,"\u0120Wh":1635,"var":1636,"\u0120&&":1637,"\u0120prevent":1638,"onse":1639,"aut":1640,"RO":1641,"iving":1642,"\u0120es":1643,"min":1644,"\u0120address":1645,"str":1646,"ication":1647,"ton":1648,"af":1649,"uture":1650,"\u0120Res":1651,"\u0120\\":1652,"\u0120phys":1653,"\u0120might":1654,"por":1655,"\u0120change":1656,"rid":1657,"version":1658,"\u0120control":1659,"son":1660,"anguage":1661,"\u0120file":1662,"\u0120ve":1663,"cer":1664,"outh":1665,"ym":1666,"yle":1667,"ript":1668,"ALU":1669,"\u0120However":1670,"ument":1671,"\u0120govern":1672,"ute":1673,"\u0120\u0120\u0120\u0120\u0120":1674,"\u0120real":1675,"itor":1676,"pre":1677,"Cl":1678,"\u0120risk":1679,"\u0120said":1680,"\u0120199":1681,"iod":1682,"man":1683,"iven":1684,"bers":1685,"cle":1686,"sp":1687,"ique":1688,"ency":1689,"ams":1690,"\u010d\u010a":1691,"\u0120light":1692,"\u0120Cl":1693,"back":1694,"ape":1695,"ditions":1696,"\u0120leg":1697,"\u0120object":1698,"\u0120three":1699,"DE":1700,"\u0120En":1701,"');":1702,"\u0120enc":1703,"\u0120imm":1704,"\u0120indust":1705,"];":1706,"\u0120lit":1707,"uf":1708,"Com":1709,"ww":1710,"hor":1711,"'),":1712,"SERT":1713,"\u0120eas":1714,"\u0120home":1715,"\u0120!=":1716,"\u0120rest":1717,"rop":1718,"atural":1719,"\u0120best":1720,"ternal":1721,"Cont":1722,"date":1723,"Error":1724,"\u0120gra":1725,"========":1726,"AS":1727,"ength":1728,"opy":1729,"\u0120supp":1730,"rag":1731,"\u0120true":1732,"hers":1733,"17":1734,"\u0120INTO":1735,"new":1736,"ele":1737,"\u0120202":1738,"\u0120cost":1739,"\u0120spe":1740,"agn":1741,"\u0120inc":1742,"\u0120fac":1743,"imate":1744,"')":1745,"\u0120cell":1746,"50":1747,"ank":1748,"ording":1749,"\u0120him":1750,"ALUES":1751,"\u0120focus":1752,"\u0120keep":1753,"Con":1754,"xt":1755,"ples":1756,"Id":1757,"\u0120Eng":1758,"string":1759,"\u0120open":1760,"time":1761,"file":1762,"13":1763,"\u0120rele":1764,"Type":1765,"\u0120appe":1766,"\u0120learn":1767,"\u0120better":1768,"\u0120Is":1769,"\u0120mult":1770,"\u0120nil":1771,"reg":1772,"\u0120lim":1773,"ertain":1774,"light":1775,"\u0120place":1776,"ik":1777,"tle":1778,"INSERT":1779,"\u0120sever":1780,"lished":1781,"\u0120cru":1782,"\u0120success":1783,"\u0120ide":1784,"atter":1785,"\u0120cour":1786,"fin":1787,"\u0120meas":1788,"ey":1789,"\u0120Sp":1790,"au":1791,"\u0120enh":1792,"\u0120improve":1793,"ways":1794,"\u0120report":1795,"key":1796,"\u0120caus":1797,"ological":1798,"ards":1799,"\u0120technology":1800,"aging":1801,"\u0120Pl":1802,"\u0120want":1803,"\u0120text":1804,"hem":1805,"rem":1806,"\u0120AI":1807,"\u0120po":1808,"\u0120pain":1809,"oh":1810,"\u0120addition":1811,"\u0120ensure":1812,"ilities":1813,"izing":1814,"\u0120top":1815,"\u0120Col":1816,"\u0120fn":1817,"ently":1818,"acy":1819,"\u0120net":1820,"uro":1821,"path":1822,"urther":1823,"../":1824,"ids":1825,"\u0120contribut":1826,"\u0120move":1827,"':":1828,"\u0120become":1829,"ients":1830,"action":1831,"\u0120still":1832,"not":1833,"erest":1834,"\u0120)":1835,"\u0120case":1836,"\u0120business":1837,"alk":1838,"rig":1839,"\u0120avail":1840,"\u0120experience":1841,"\u0120area":1842,"value":1843,"\u0120profess":1844,"To":1845,"lt":1846,"\u0120called":1847,"\u0120against":1848,"\u0120rece":1849,"\u0120sit":1850,"roll":1851,"ending":1852,"\u0120law":1853,"inc":1854,"\u0120due":1855,"\u0120VALUES":1856,"\u010a\u010a\u0120":1857,"obal":1858,"log":1859,"What":1860,"\u0120effic":1861,"CH":1862,"\u0120particular":1863,"\u0120needs":1864,"\u0120based":1865,"ET":1866,"\u0120protect":1867,"ission":1868,"\u0120desc":1869,"\u0120American":1870,"\u0120econom":1871,"ends":1872,"org":1873,"\u0120areas":1874,"\u0120range":1875,",\u00e2\u0122\u013f":1876,"\u0120early":1877,"\u0120feel":1878,"\u0120There":1879,"\u0120cal":1880,"\u0120affect":1881,"\u0120maintain":1882,"\u0120gen":1883,"](":1884,"ION":1885,"orth":1886,"duct":1887,"\u0120Z":1888,"apt":1889,"\u0120challeng":1890,"\u0120several":1891,"\u0120conditions":1892,"\u0120orig":1893,"this":1894,"\u0120head":1895,"\u0120And":1896,"ended":1897,"DI":1898,"\u0120understanding":1899,"\u0120don":1900,"\u0120quest":1901,"99":1902,"\u0120great":1903,"._":1904,"\u0120non":1905,"raw":1906,"\u0120On":1907,"abor":1908,"\u0120future":1909,"\u0120individuals":1910,"AN":1911,"icle":1912,"'t":1913,"\u0120last":1914,"aster":1915,"\u0120som":1916,"\u0120large":1917,"\u0120dig":1918,"opt":1919,"\u0120crit":1920,"\u0120following":1921,"\u0120though":1922,"\u0120present":1923,"ories":1924,"${":1925,"ived":1926,"\u0120strateg":1927,"Ad":1928,"func":1929,"atures":1930,"\u0120connect":1931,"\u0120expect":1932,"\u0120history":1933,"33":1934,"\u0120z":1935,"\u0120treatment":1936,"\u0120few":1937,"24":1938,"\u0120htt":1939,"fo":1940,"ATE":1941,"inter":1942,"ables":1943,"\u0120invest":1944,"\u0120error":1945,"\u0120group":1946,"\u012020":1947,"resent":1948,"sy":1949,"\u0120x":1950,"ention":1951,"\u0120crucial":1952,"ored":1953,"ograph":1954,"AB":1955,"/*":1956,"ajor":1957,"ustom":1958,"ression":1959,"ired":1960,"fl":1961,"As":1962,"go":1963,"\u0120natural":1964,"ember":1965,"finished":1966,"une":1967,"\u0120,":1968,"\u0120bo":1969,"\u0120But":1970,"\u0120tre":1971,"ina":1972,"\u0120United":1973,"\u0120ant":1974,"\u0120Comm":1975,"CO":1976,"\u0120init":1977,"\u0120old":1978,"\u0120},":1979,"\u0120When":1980,"\u0120low":1981,"\u0120plant":1982,"\u0120cause":1983,"aces":1984,"\u0120Some":1985,"UT":1986,"rc":1987,"\u0120another":1988,"ibility":1989,"ems":1990,"ream":1991,"\u0120hig":1992,"\u0120->":1993,"\u0120consum":1994,"How":1995,"\u0120sing":1996,"\u0120Can":1997,"\u0120University":1998,"\u0120behav":1999,"\u0120levels":2000,"unfinished":2001,"\u0120blood":2002,"anced":2003,"\u0120integ":2004,"esc":2005,"\u0120Ph":2006,"ilit":2007,"\u0120bro":2008,"\u0120did":2009,"\u0120check":2010,"\u0120path":2011,"\u0120war":2012,"\u0120cr":2013,"arc":2014,"here":2015,"\u0120family":2016,"IC":2017,"asing":2018,"dev":2019,"eb":2020,"ators":2021,"ires":2022,"uild":2023,"yd":2024,"ename":2025,"play":2026,"ots":2027,"ised":2028,"\u0120think":2029,"\u0120step":2030,"\u0120reduce":2031,"\u00e2\u0122\u013e":2032,"\u0120available":2033,"\u0120team":2034,"orld":2035,"\u0120interest":2036,"right":2037,"\u0120issues":2038,"\u0120community":2039,"80":2040,"\u0120sw":2041,"eter":2042,"ref":2043,"\u010a\u0120\u0120\u0120\u0120\u0120\u0120\u0120\u0120\u0120":2044,"An":2045,"rame":2046,"\u0120contain":2047,"\u0120comb":2048,"ians":2049,"\u0120associ":2050,"\u0120quality":2051,"AC":2052,"ones":2053,"indow":2054,"\u0120arg":2055,"\u0120changes":2056,"\u0120anim":2057,"\u012012":2058,"\u010a\u0120\u0120":2059,"\u0120size":2060,"rict":2061,"\u0120unt":2062,"\u0120fore":2063,"\u0120bir":2064,"ules":2065,"\u0120language":2066,"iver":2067,"ides":2068,"\u0120press":2069,"list":2070,"ger":2071,"\u0120post":2072,"ml":2073,"\u0120ter":2074,"\u0120respons":2075,"\u0120event":2076,"load":2077,"col":2078,"\u0120complex":2079,"\u0120means":2080,"\u0120second":2081,"\u0120period":2082,"erences":2083,"Val":2084,"\u0120sust":2085,"lection":2086,"olution":2087,"\u0120gr":2088,"\u0120skills":2089,"ole":2090,"\u0120across":2091,"\u0120disease":2092,"\u0120bi":2093,"ffic":2094,"icense":2095,"ieve":2096,"\u0120mean":2097,"\u0120order":2098,"ocument":2099,"ivity":2100,"Wh":2101,"\u0120beg":2102,"\u0120estab":2103,"ands":2104,"\u0120flow":2105,"\u0120management":2106,"\u0120influ":2107,"Ref":2108,"40":2109,"\u0120fail":2110,"plement":2111,"\u0120sustain":2112,"\u00c3\u00a9":2113,"Un":2114,"\"\"":2115,"heck":2116,"\u0120record":2117,"\u00e4\u00b8":2118,"ths":2119,"\u0120women":2120,"dir":2121,"For":2122,"\u0120///":2123,"\u0120user":2124,"\u0120types":2125,"\u0120helps":2126,"ope":2127,"\u0120character":2128,"`,":2129,"osed":2130,"If":2131,"\u0120others":2132,"\u0120ur":2133,"\u0120ret":2134,"ledge":2135,"curity":2136,"ification":2137,"ache":2138,"\u0120possible":2139,"\u0120education":2140,"\u0120cy":2141,"ruction":2142,"\u0120To":2143,"ler":2144,"ternational":2145,"\u0120bas":2146,"\u0120special":2147,"\u0120log":2148,"atory":2149,"200":2150,"over":2151,"\u0120\u00e2\u0122\u013a":2152,"leep":2153,"\u0120sens":2154,"\u0120occur":2155,"\u0120necess":2156,"...":2157,"\u0120later":2158,"\u0120consider":2159,"RI":2160,"pecially":2161,"rist":2162,"\u0120\u00e2\u0122\u0136":2163,"\u0120space":2164,"iet":2165,"\u0120growth":2166,"ftware":2167,"\u0120here":2168,"\u0120Le":2169,"\u0120try":2170,"ublic":2171,"66":2172,"\u012015":2173,"\u0120Te":2174,"\u0120('":2175,"\u0120NOT":2176,"\u0120ut":2177,"aring":2178,"plic":2179,"gen":2180,"ptoms":2181,"\u0120too":2182,"\u0120government":2183,"\u0120vol":2184,"erc":2185,"\u0120major":2186,"\u0120approach":2187,"from":2188,"\u0120view":2189,"\u0120mill":2190,"\u0120resources":2191,"\u0120since":2192,"\u0120\u0120\u0120\u0120\u0120\u0120":2193,"\u0120production":2194,"\u0120dam":2195,"ips":2196,"\u0120among":2197,"ured":2198,"ditional":2199,"\u0120personal":2200,"istic":2201,"ilar":2202,"\u0120turn":2203,"ane":2204,"\u0120effective":2205,"mit":2206,"\u0120results":2207,"sw":2208,"aste":2209,"\u0120materials":2210,"\u0120lik":2211,"\u0120nut":2212,"\u0120next":2213,"https":2214,"\u0120States":2215,"idence":2216,"\u0120amount":2217,"\u0120parent":2218,"place":2219,"osp":2220,"idd":2221,"roups":2222,"iting":2223,"\u0120along":2224,"\u0120physical":2225,"60":2226,"\u0120short":2227,"utions":2228,"\u0120happ":2229,"FI":2230,"\u0120source":2231,"serv":2232,"','":2233,"iple":2234,"ilt":2235,"\u0120mar":2236,"\u0120port":2237,"ung":2238,"\u0120free":2239,"\u0120install":2240,"\u010a\u0120\u0120\u0120\u0120\u0120\u0120\u0120\u0120\u0120\u0120\u0120\u0120\u0120\u0120\u0120\u0120\u0120\u0120\u0120\u0120\u0120\u0120\u0120":2241,"].":2242,"code":2243,"icro":2244,"\u0120exist":2245,"\u0120temper":2246,"ystem":2247,"\u0120hard":2248,"\u0120ach":2249,"\u0120experien":2250,"\u0120Cont":2251,"icult":2252,"\u0120near":2253,"}\"":2254,"\u0120times":2255,"\u0120certain":2256,"Ar":2257,"\u0120/*":2258,"ests":2259,"\u0120Bl":2260,"mut":2261,"\u0120With":2262,"\u00d0\u00b0":2263,"\u0120species":2264,"ithub":2265,"\u012017":2266,"AD":2267,"\u0120Be":2268,"\u0120comput":2269,"\u0120vir":2270,"irc":2271,"\u0120especially":2272,"\u0120sl":2273,"num":2274,"\u0120So":2275,"ney":2276,"wards":2277,"\u0120works":2278,"\u0120content":2279,"\u0120relations":2280,"\u0120false":2281,"\u0120benefits":2282,"22":2283,"\u0120determ":2284,"ift":2285,"NA":2286,"nov":2287,"\u0120men":2288,"su":2289,"\u0120model":2290,"\u0120clean":2291,"\u0120options":2292,"ches":2293,"\u0120clear":2294,"iles":2295,"\u0120activities":2296,"\u0120age":2297,"\u0120strong":2298,"\u0120until":2299,"\u0120four":2300,"ibr":2301,"ister":2302,"\u0120prim":2303,"function":2304,"\u0120larg":2305,"echo":2306,"ights":2307,"aps":2308,"\u0120At":2309,"\u0120CO":2310,"\u0120detail":2311,"By":2312,".,":2313,"br":2314,"ek":2315,"ties":2316,"ags":2317,"On":2318,"ysis":2319,"clus":2320,"\u0120Im":2321,"\u0120able":2322,"\u0120bal":2323,"\u0120conc":2324,"34":2325,"\u0120All":2326,"pportun":2327,"\u0120tools":2328,"\u0120performance":2329,"ils":2330,"\u0120break":2331,"param":2332,"ball":2333,"70":2334,"\u0120problems":2335,"erence":2336,"\u0120stress":2337,"\u0120given":2338,"\u0120values":2339,"\u0120employ":2340,"PI":2341,"vious":2342,"\u0120target":2343,"\u0120cho":2344,"urope":2345,"ancial":2346,"github":2347,"bo":2348,"\u0120account":2349,"\u0120services":2350,"\u0120emot":2351,"\u00ef\u00bc":2352,"\u0120Man":2353,"\u0120heart":2354,"ED":2355,"\u0120polit":2356,"\u0120country":2357,"\u0120mot":2358,"\u0120challenges":2359,"\u0120coll":2360,"\u0120US":2361,"(),":2362,"ours":2363,"\u0120further":2364,"\u0120come":2365,"Al":2366,"\u0120avoid":2367,"\u0120recogn":2368,"\u0120symptoms":2369,"\u0120increase":2370,"MA":2371,"sel":2372,"\u0120X":2373,"\u0120safety":2374,"\u012016":2375,"\u0120market":2376,"35":2377,"\u0120represent":2378,"\u0120higher":2379,"inks":2380,"().":2381,"\u0120mach":2382,"config":2383,"\u0120Or":2384,"ither":2385,"amm":2386,"\u0120mov":2387,"\u0120context":2388,"\u0120\u00d0":2389,"define":2390,"rect":2391,"38":2392,"eral":2393,"bol":2394,"icy":2395,"rust":2396,"\u0120plants":2397,"RA":2398,"\u0120Inst":2399,"uff":2400,"ising":2401,"\u0120unique":2402,"\u0120National":2403,"\u0120]":2404,"rad":2405,"ooks":2406,"\u0120print":2407,"List":2408,"\u0120mind":2409,"\u0120compon":2410,"\u0120assert":2411,"abel":2412,"ipp":2413,"\u0120products":2414,"side":2415,"raft":2416,"FA":2417,"\u0120opportun":2418,"ample":2419,"empt":2420,"reen":2421,"rior":2422,"order":2423,"\u0120lay":2424,"\u0120working":2425,"\u0120scient":2426,"ription":2427,"\">":2428,"eds":2429,"\u0120environmental":2430,"\u0120version":2431,"\u0120factors":2432,"\u0120ability":2433,"\u0120knowledge":2434,"\u0120priv":2435,"\u0120Reg":2436,"ume":2437,"word":2438,"rodu":2439,"bin":2440,"\u0120provides":2441,"\u0120building":2442,"String":2443,"\u0120global":2444,"ises":2445,"\u0120required":2446,"ai":2447,"user":2448,"\u0120echo":2449,"\u0120block":2450,"med":2451,"\u0120problem":2452,"iation":2453,"oring":2454,"len":2455,"\u0120\u010a":2456,"dis":2457,"\u0120offer":2458,"\u0120ey":2459,"\u0120things":2460,"\u0120fund":2461,"umn":2462,"iency":2463,"65":2464,"head":2465,"\u0120difficult":2466,"fer":2467,"\u0120loss":2468,"\u0120always":2469,"ready":2470,"\u0120training":2471,"verse":2472,"\u0120Cent":2473,"ales":2474,"print":2475,"\u0120service":2476,"mb":2477,"\u0120young":2478,"We":2479,"\u0120Europe":2480,"reng":2481,"lement":2482,"Sc":2483,"aper":2484,"md":2485,"\u0120Go":2486,"UR":2487,"\u0120implement":2488,"\u0120engine":2489,"\u0120select":2490,"\u0120${":2491,"\u0120overall":2492,"LO":2493,"dom":2494,"\u0120Af":2495,"\u0120full":2496,"\u0120author":2497,"\u0120rad":2498,"\u0120medical":2499,"\u0120mat":2500,"ott":2501,"comes":2502,"ulations":2503,"though":2504,"When":2505,"\u0120healthy":2506,"\u0120distribut":2507,"bon":2508,"\u0120et":2509,"my":2510,"MP":2511,"chan":2512,"ports":2513,"\u0120ways":2514,"```":2515,"now":2516,"\u0120tri":2517,"ev":2518,"class":2519,"\u0120custom":2520,"\u0120makes":2521,"!(":2522,"rim":2523,"\u0120lower":2524,"\u0120allows":2525,"\u0120code":2526,"gether":2527,"\u0120together":2528,"\u0120filename":2529,"\u0120effects":2530,"comp":2531,"ump":2532,"])":2533,"\u0120single":2534,"fort":2535,"etic":2536,"\u00e3\u0123":2537,"vert":2538,"\u0120indic":2539,"\u0120left":2540,"\u0120regular":2541,"\u0120security":2542,"28":2543,"enc":2544,"\u0120today":2545,"\u0120dr":2546,"ormal":2547,"\u0120death":2548,"ites":2549,"\u0120effort":2550,"\u0120World":2551,"\u0120relationship":2552,"\u0120methods":2553,"\");":2554,"atform":2555,"ohn":2556,"\u00d0\u00be":2557,"\u0120198":2558,"\u00d0\u00b5":2559,"\u0120fun":2560,"aves":2561,"mber":2562,"iques":2563,"\u0120became":2564,"\u0120config":2565,"\u012014":2566,"\u0120side":2567,"\u0120practices":2568,"ably":2569,"75":2570,"igned":2571,"ief":2572,"\u0120remain":2573,"\u0120associated":2574,"\u0120sugg":2575,"\u0120discuss":2576,"\u0120term":2577,"lex":2578,"oph":2579,"\u0120put":2580,"off":2581,"\u0120likely":2582,"net":2583,"tings":2584,"epend":2585,"\u0120pay":2586,"ley":2587,"ufact":2588,"\u0120jour":2589,"ider":2590,".</":2591,"\u0120industry":2592,"\u0120dom":2593,"\u0120climate":2594,"\u0120response":2595,"En":2596,"\u0120default":2597,"\u0120financial":2598,"care":2599,"\u0120License":2600,"size":2601,"\u0120deb":2602,"\u0120sum":2603,"\u0120Mar":2604,"itle":2605,"\u0120arch":2606,"\u0120Med":2607,"ething":2608,"\u0120pattern":2609,"\u0120match":2610,"count":2611,"based":2612,"Data":2613,"Set":2614,"\u0120continu":2615,"['":2616,"aken":2617,"lib":2618,"\u0120mental":2619,"\u0120cases":2620,"\u0120particip":2621,"\u0120brain":2622,"\u0120book":2623,"iable":2624,"aling":2625,"\u0120quick":2626,"\u0120ill":2627,"rel":2628,"\u0120foot":2629,"uration":2630,"asc":2631,"rapy":2632,"\u0120network":2633,"\u0120similar":2634,"hold":2635,"\u0120minim":2636,"\u0120diet":2637,"rec":2638,"\u0120whether":2639,"mon":2640,"\u0120identify":2641,"\u0120recomm":2642,"bject":2643,"\u0120chem":2644,"aching":2645,"\u0120necessary":2646,"rs":2647,"\u0120begin":2648,"aim":2649,"odes":2650,"http":2651,"\u0120War":2652,"verage":2653,"\u0120What":2654,"\u0120sleep":2655,"\u0120sure":2656,"\u0120She":2657,"\u0120rout":2658,"\u0120done":2659,"74":2660,"run":2661,"ze":2662,"\u0120cut":2663,"do":2664,"icial":2665,"\u0120why":2666,"\u0120collect":2667,"ae":2668,"\u0120cells":2669,"ird":2670,"\u0120Su":2671,"orks":2672,"\u0120company":2673,"\u0120situ":2674,"\u0120neg":2675,"\u0120pack":2676,"\u0120software":2677,"\u0120la":2678,"\u0120music":2679,"ender":2680,"oney":2681,"\u0120circ":2682,"\u0120While":2683,"\u0120critical":2684,"\u0120dog":2685,"\u0120streng":2686,"\u0120Brit":2687,"\u0120population":2688,"iate":2689,"\u0120nature":2690,"78":2691,"ront":2692,"state":2693,"\u0120modern":2694,"=$":2695,"\u0120color":2696,"ming":2697,"\u0120Car":2698,"\u0120leading":2699,"\u0120id":2700,"\u0120city":2701,"\u0120Christ":2702,"};":2703,"tes":2704,"ma":2705,"\u0120already":2706,"elling":2707,"import":2708,"23":2709,"IS":2710,"Ind":2711,"\u0120days":2712,"ctions":2713,"\u0120assess":2714,"\u0120None":2715,"\u0120meet":2716,"\u0120Aust":2717,"inst":2718,"const":2719,"\u0120null":2720,"aged":2721,"oose":2722,"='":2723,"\u0120big":2724,"\u0120digital":2725,"map":2726,"\u0120created":2727,"aches":2728,"\u0120exc":2729,"\u0120deep":2730,"Im":2731,"\u0120ground":2732,"################":2733,"\u0120practice":2734,"sequ":2735,"\u0120Health":2736,"\u0120countries":2737,"There":2738,"\u0120frequ":2739,"\u0120course":2740,"29":2741,"\u0120usually":2742,"\u0120say":2743,"emic":2744,"field":2745,"55":2746,"PT":2747,",'":2748,"\u0120far":2749,"\u0120pressure":2750,"\u0120differen":2751,"\u0120popular":2752,"\u0120patients":2753,"\u0120fri":2754,"\u0120particularly":2755,"ison":2756,"\u010d\u010a\u0120\u0120\u0120":2757,"\u0120dest":2758,"\u0120Ass":2759,"context":2760,"\u0120traditional":2761,"\u0120action":2762,"\u0120histor":2763,"\u0120Afric":2764,"\".":2765,"\u0120past":2766,"\u0120red":2767,"ening":2768,"lying":2769,"actions":2770,"mt":2771,"\u0120applications":2772,"\u0120describ":2773,"alf":2774,"Sh":2775,"orage":2776,"nection":2777,"\u0120hold":2778,"issions":2779,"\u0120accur":2780,"\u0120members":2781,"\u0120dri":2782,"\u0120online":2783,"ABLE":2784,"oman":2785,"\u0120concern":2786,"\u0120soil":2787,"bl":2788,"atives":2789,"\u0120\"${":2790,"\u0120increasing":2791,"\u0120something":2792,"\u0120ann":2793,"44":2794,"\u0120story":2795,"aced":2796,"\u0120Germ":2797,"ls":2798,"dict":2799,"\u0120designed":2800,"\u0120One":2801,"\u0120season":2802,"\u0120activity":2803,"ception":2804,"oud":2805,"\u0120God":2806,"yth":2807,"));":2808,"\u0120concept":2809,"rite":2810,"default":2811,"\u0120table":2812,"\u0120School":2813,"\u0120lif":2814,"\u0120century":2815,"Se":2816,"ops":2817,"\u00c2\u0142":2818,"\u0120give":2819,"\u0120optim":2820,"\u00e0\u00a4":2821,"enn":2822,"Value":2823,"pub":2824,"point":2825,"\u0120exerc":2826,"inary":2827,"\u0120mut":2828,"\u0120super":2829,"amed":2830,"\u0120events":2831,"\u012030":2832,"////":2833,"\u0120away":2834,"\u0120having":2835,"selves":2836,"With":2837,"isions":2838,"\u0120Ear":2839,"earch":2840,"gs":2841,"\u0120compan":2842,"\u0120innov":2843,"aily":2844,"39":2845,"\u0120providing":2846,"\u0120either":2847,"\u0120condition":2848,"\u0120DE":2849,"\u0120compet":2850,"hern":2851,"\u0120structure":2852,"ULT":2853,"\u0120skin":2854,"init":2855,"\u0120abs":2856,"\u0120above":2857,"\u0120enhance":2858,"AG":2859,"\u0120feed":2860,"\u0120prec":2861,"\u0120groups":2862,"\u0120position":2863,"\u0120simple":2864,"\u0120link":2865,"\u0120encou":2866,"\u0120manufact":2867,"istance":2868,"PE":2869,"\u0120South":2870,"\u0120Par":2871,"\u0120attack":2872,"sub":2873,"ounds":2874,"\u0120document":2875,"\u0120cancer":2876,"thing":2877,"\u0120game":2878,"oin":2879,"ideo":2880,"\u0120needed":2881,"=\"../":2882,"Key":2883,"\u0120autom":2884,"standing":2885,"\u0120max":2886,"\u0120adapt":2887,"\u0120subject":2888,"ponse":2889,"ground":2890,"\u0120behavior":2891,"quest":2892,"\u0120article":2893,"\u0120little":2894,"--------------------------------":2895,"active":2896,"\u0120techniques":2897,"ux":2898,"\u0120job":2899,"just":2900,"\u0120[]":2901,"orpor":2902,"hens":2903,"\u0120general":2904,"\u0120deg":2905,"ken":2906,"\u0120creating":2907,"\u0120harm":2908,"oper":2909,"\u0120economic":2910,"\u0120br":2911,"ulate":2912,"\u0120bring":2913,"\u0120Cal":2914,"\u0120house":2915,"\u0120subst":2916,"36":2917,"ND":2918,"no":2919,"idth":2920,"79":2921,"\u0120introdu":2922,"Qu":2923,"\u0120ensuring":2924,"\u0120Tra":2925,"\u0120emb":2926,"text":2927,"ctor":2928,"Col":2929,"DIR":2930,"aries":2931,"';":2932,"\u010a\u010a\u0109":2933,"\u0120option":2934,"\u0120multiple":2935,"\u0120comes":2936,"\u00d0\u00b8":2937,"\u0120safe":2938,"\u0120John":2939,"\u0120rev":2940,"ht":2941,"26":2942,"\u0120includes":2943,"me":2944,"\u0120consist":2945,"bre":2946,"\u010d\u010a\u0120\u0120\u0120\u0120\u0120\u0120\u0120":2947,"\u00e7\u013c":2948,"\u0120fall":2949,"itch":2950,"ui":2951,"ences":2952,"\u0120request":2953,"\u0120analysis":2954,"\u0120Pol":2955,"lease":2956,"\u0120increased":2957,"\u00e7\u013c\u0126":2958,"char":2959,"xy":2960,"amb":2961,"45":2962,"\u0120reflect":2963,"\u0120features":2964,"\u0120emerg":2965,"\u0120hab":2966,"\u0120analy":2967,"\u0120dat":2968,"\u0120damage":2969,"\u0120May":2970,"\u0120image":2971,"amin":2972,"\u0120kind":2973,"\u0120__":2974,"\u0120instance":2975,"\u0120weight":2976,"\u0120least":2977,"ret":2978,"\u0120communication":2979,"****************":2980,"ober":2981,"\u0120once":2982,"tra":2983,"\u0120calc":2984,"\u0120researc":2985,"\u0120tot":2986,"\u0120Gu":2987,"\u0120strategies":2988,"ologies":2989,"\u0120series":2990,"\u0120transform":2991,"\u0120enough":2992,"ervice":2993,"\u0120parts":2994,"\u0120ge":2995,"arr":2996,"\u0120heat":2997,"wh":2998,"\u0120Gener":2999,"\u0120live":3000,"osis":3001,"urch":3002,"most":3003,"aving":3004,"\u0120cultural":3005,"node":3006,"\u0120sun":3007,"eters":3008,"\u0120Do":3009,"\u0120rights":3010,"term":3011,"sych":3012,"\u0120English":3013,"\u0120national":3014,"\u0120commit":3015,"\u0120million":3016,"izes":3017,"\u0120says":3018,"\u0120und":3019,"\u0120science":3020,"www":3021,"qual":3022,"ership":3023,"\u0120ask":3024,"info":3025,"\u0120professional":3026,"\u0120bar":3027,"pid":3028,",\"":3029,"met":3030,"assert":3031,"\u0120prior":3032,"\u0120aud":3033,"uel":3034,"ensive":3035,"ival":3036,"\u0120considered":3037,"db":3038,"\u0120Dis":3039,"\u0120100":3040,"References":3041,"index":3042,"fully":3043,"izations":3044,"\u0120continue":3045,"osing":3046,"error":3047,"pan":3048,"ait":3049,"ING":3050,"\u0120});":3051,"\u0120guid":3052,"\u0120cat":3053,"\u0120sense":3054,"\u0120Ab":3055,"erous":3056,"\u0120Cons":3057,"\u0120ec":3058,"\u0120studies":3059,"You":3060,"sing":3061,"\u0120words":3062,"ager":3063,"\u0120App":3064,"\u0120Act":3065,"nal":3066,"istics":3067,"\u0120appear":3068,"++":3069,"astic":3070,"\u0120capt":3071,"\u0120seen":3072,"48":3073,"ension":3074,"\u0120percent":3075,"vere":3076,"21":3077,"\u0120surface":3078,"\u0120Ge":3079,"illed":3080,"\u0120micro":3081,"\u0120built":3082,"ditionally":3083,"\u0120never":3084,"length":3085,"\u0120host":3086,"\u0120input":3087,"\u0120monitor":3088,"\u0120teac":3089,"\u0120rather":3090,"ges":3091,"\u0120track":3092,"\u0120previous":3093,"\u0120promot":3094,"\u0120region":3095,"Get":3096,"\u0120rate":3097,"\u0120throughout":3098,"\u0120lot":3099,"\u0120significantly":3100,"\u0120typically":3101,"\u0120published":3102,"etimes":3103,"\u0120Your":3104,"acc":3105,"uck":3106,"alt":3107,"Mod":3108,"\u0120links":3109,"\u0120green":3110,"\u0120op":3111,"\u0120ste":3112,"erson":3113,"\u0120terms":3114,"\u0120requires":3115,"\u0120platform":3116,"\u0120medic":3117,"\u0120positive":3118,"\u0120related":3119,"27":3120,"\u0120flu":3121,"ession":3122,"\u0120Int":3123,"\u0120devices":3124,"IL":3125,"object":3126,"New":3127,"\u0120exec":3128,"\u0120importance":3129,"\u0120developed":3130,"\u0120\"\"\"":3131,"\u0120users":3132,"js":3133,"static":3134,"\u0120Stud":3135,"']":3136,"\u0120gain":3137,"valid":3138,"ores":3139,"\u0120according":3140,"hel":3141,"start":3142,"\u0120North":3143,"aff":3144,"\u0120remov":3145,"ging":3146,"\u0120conduct":3147,"\u0120aim":3148,"\u0120aspect":3149,"\u0120provided":3150,"\u0120mechan":3151,"\u0120Am":3152,"\u0120Fl":3153,"He":3154,"\u0120communities":3155,"\u0120base":3156,"HO":3157,"Pl":3158,"INT":3159,"\u0120India":3160,"cks":3161,"\u0120media":3162,"rown":3163,"icles":3164,"plate":3165,"\u0120;":3166,"\u0120No":3167,"lean":3168,"\u0120sent":3169,"sl":3170,"\u0120princ":3171,"ada":3172,"het":3173,"iol":3174,"\u0120integr":3175,"\u0120temperature":3176,"\u0120elements":3177,"\u0120diagn":3178,"\u0120Qu":3179,"\u0120site":3180,"ari":3181,"\u0120players":3182,"\u0120webs":3183,"ccording":3184,"bit":3185,"\u00ef\u00bc\u012e":3186,"ancing":3187,"\u0120questions":3188,"\u0120going":3189,"que":3190,"pri":3191,"\u0120};":3192,"\u0120cannot":3193,"\u0120After":3194,"\u0120aware":3195,"\u0120reason":3196,"\u00e3\u0122":3197,"\u0120however":3198,"\u0120living":3199,"\u0120phot":3200,"ament":3201,"like":3202,"\u0120processes":3203,"69":3204,"nown":3205,"\u0120efficient":3206,"SI":3207,"\u0120application":3208,"lin":3209,"\u0120daily":3210,"\u0120sect":3211,"\u0120sustainable":3212,"ese":3213,"asks":3214,"\u0120http":3215,"\u0120output":3216,"ypes":3217,"api":3218,"\u0120sources":3219,"\u0120offers":3220,"pose":3221,"cast":3222,"\u00d1\u0124":3223,"\u0120famil":3224,"\u0120meaning":3225,"ults":3226,"\u0120writing":3227,"\u0120command":3228,"\u0120fire":3229,"68":3230,"\u0120Austral":3231,"expect":3232,"ster":3233,"\u0120symbol":3234,"At":3235,"\u0120void":3236,"\u0120entire":3237,"sk":3238,"\u0120electric":3239,"CE":3240,"\u0120ver":3241,"\u0120companies":3242,"\u0120below":3243,"case":3244,"rep":3245,"imately":3246,"\u0120);":3247,"37":3248,"================":3249,"apan":3250,"\u0120culture":3251,"\u012011":3252,"\u0120State":3253,"\u0120threat":3254,"\u0120explore":3255,"uments":3256,"Add":3257,"\u0120load":3258,"rypt":3259,"pper":3260,"\u0120programs":3261,"ronic":3262,"\u0120Count":3263,"\u0120https":3264,"\u0120pan":3265,"json":3266,"\u0120fish":3267,"\u0120effectively":3268,"hib":3269,"overed":3270,"\u0120farm":3271,"hing":3272,"\u0120broad":3273,"\u0120variety":3274,"ban":3275,"\u0120lives":3276,"\u0120decl":3277,"\u0120face":3278,"\u0120healthcare":3279,"\u0120political":3280,"duc":3281,"\u0120chemical":3282,"Int":3283,"itud":3284,"\u0120uses":3285,"\u0120stay":3286,"\u0120uns":3287,"\u012025":3288,"Par":3289,"\u0120regard":3290,"null":3291,"\u0120efficiency":3292,"\u0120five":3293,"\u0120achieve":3294,"\u0120er":3295,"iance":3296,"\u0120fat":3297,"\u0120Soc":3298,"lege":3299,"\u0120taking":3300,"\u0120root":3301,"ellig":3302,"create":3303,"ivil":3304,"\u0120mass":3305,"\u0120express":3306,"One":3307,"\u0120attention":3308,"\u0120His":3309,"\u0120Pr":3310,"\u0120observ":3311,"\u0120Val":3312,"ike":3313,"ogle":3314,"\u0120separ":3315,"EX":3316,"\u0120progress":3317,"\u0120carbon":3318,"\u0120correct":3319,"\u0120frame":3320,"\u0120That":3321,"itect":3322,"nderstanding":3323,"\u0120param":3324,"\u0120led":3325,"\u0120tim":3326,"\u0120longer":3327,"\u0120copy":3328,"ricult":3329,"\u0120total":3330,"\u0120eval":3331,"\u0120respect":3332,"eed":3333,"\u0120gas":3334,"\u0120measure":3335,"ography":3336,"erve":3337,"31":3338,"ene":3339,"\u0120reducing":3340,"04":3341,"pace":3342,"\u0120question":3343,"\u0120inj":3344,"Object":3345,"ero":3346,"\u0120waste":3347,"###":3348,"fi":3349,"\u0120style":3350,"tr":3351,"\u0120themselves":3352,"coming":3353,"reed":3354,"FF":3355,">&":3356,"\u0120gard":3357,"iter":3358,"\u0120message":3359,"ried":3360,"\u0120fru":3361,"pack":3362,"ervation":3363,"\u0120Ag":3364,"\u0120York":3365,"///":3366,"ilitary":3367,"\u0120student":3368,"\u0120active":3369,"\u0120involves":3370,"istory":3371,"\u0120lo":3372,"\u0120easy":3373,"\u0120mix":3374,"\u00c3\u00a1":3375,"\u0120Min":3376,"minist":3377,"\u0120hyd":3378,"\u0120film":3379,"\u0120veh":3380,"\u0120models":3381,"rial":3382,"\u0120paper":3383,"\u0120har":3384,"IP":3385,"\u0120British":3386,"ipment":3387,"\u0120Use":3388,"\u0120original":3389,"\u0120produce":3390,"utes":3391,"EY":3392,"\u0120Me":3393,"\u0120seek":3394,"host":3395,"\u0120Part":3396,"\u0120patient":3397,"ounter":3398,"\u0120ri":3399,"\u0120element":3400,"\u0120prote":3401,"flow":3402,"\u00d0\u00bd":3403,"\u0120node":3404,"\u0120eth":3405,"mar":3406,"\u0120sat":3407,"\u0120anc":3408,"\u0120suggest":3409,"avig":3410,"SS":3411,"\u0120status":3412,"build":3413,"joy":3414,"\u0120collabor":3415,"\u0120primary":3416,"Not":3417,"\u0120week":3418,"iddle":3419,"oon":3420,"\u0120researchers":3421,"\u0120black":3422,"ynam":3423,"src":3424,"\u0120share":3425,"\u0120stop":3426,"down":3427,"ached":3428,"fil":3429,"\u0120international":3430,"\u0120began":3431,"\u0120additional":3432,"itable":3433,"\";":3434,"\u0120dru":3435,"77":3436,"iment":3437,"\u0120expected":3438,"CL":3439,"cp":3440,"call":3441,"void":3442,"\u0120projects":3443,"works":3444,"\u0120word":3445,"hood":3446,"\u0120months":3447,"\u0120aff":3448,"\u0120oil":3449,"gt":3450,"US":3451,"\u0120towards":3452,"\u0120liter":3453,"html":3454,"aly":3455,"umb":3456,"\u0120device":3457,"\u0120Here":3458,"\u0120issue":3459,"\u0120heav":3460,"\u0120taken":3461,"\u0120standard":3462,"\u0120limit":3463,"\u0120money":3464,"augh":3465,"UP":3466,"oor":3467,"\u0120solutions":3468,")</":3469,"\u0120Co":3470,"\u0120origin":3471,"clude":3472,"FAULT":3473,"\u0120society":3474,"\u0120whole":3475,"\u012013":3476,"\u0120compre":3477,"abilities":3478,"\u0120solar":3479,"\u0120costs":3480,"\u0120parents":3481,"\u0120ful":3482,"HER":3483,"\u0120contact":3484,"\u0120index":3485,"vant":3486,"\u0120white":3487,"Node":3488,"\u0120Pe":3489,"\u0120lack":3490,"\u0120experiences":3491,"\u0120yet":3492,"\u0120property":3493,"tual":3494,"\u0120Rec":3495,"irit":3496,"\u0120itself":3497,"with":3498,"\u0120page":3499,"being":3500,"na":3501,"ged":3502,"\u0120legal":3503,"rage":3504,"avor":3505,"\u0120Des":3506,"ocol":3507,"State":3508,"\u0120High":3509,"\u0120transport":3510,"\u0120shows":3511,"\u00d1\u0122":3512,"icip":3513,"\u0120Comp":3514,"ana":3515,"\u0120balance":3516,"\u0120sec":3517,"ony":3518,"fect":3519,"\u0120===":3520,"\u0120accept":3521,"\u0120Test":3522,"ptions":3523,"\u0120map":3524,"\u0120Dr":3525,"\u0120Per":3526,"\u0120instead":3527,"ube":3528,"\u0120fost":3529,"\u0120private":3530,"uth":3531,"artment":3532,"\u0120animals":3533,"osure":3534,"gar":3535,"\u0120()":3536,"Config":3537,"UN":3538,"\u0120camp":3539,"}/":3540,"oat":3541,"\u0120answ":3542,"Time":3543,"\u0120valid":3544,"\u0120reading":3545,"\u0120foods":3546,"\u0120appropri":3547,"reate":3548,"CA":3549,"ades":3550,"\u0120Japan":3551,"100":3552,"DO":3553,"49":3554,"\u0120prep":3555,"\u0120risks":3556,"\u0120wild":3557,"\u0120established":3558,"ialog":3559,"\u0120Dep":3560,"\u0120close":3561,"acity":3562,"\u0120util":3563,"ns":3564,"ha":3565,"\u0120states":3566,"tem":3567,"\u0120decision":3568,"\u0120tree":3569,"\u0120visual":3570,"\u0120highlight":3571,"etes":3572,"\u0120spread":3573,"\u0120directly":3574,"())":3575,"irm":3576,"\u0120review":3577,"\u0120evalu":3578,"\u0120hom":3579,"\u0120extra":3580,"\u0120influence":3581,"part":3582,"ened":3583,"\u0120emotional":3584,"vision":3585,"\u0120altern":3586,"\u0120properties":3587,"\u0120draw":3588,"\u0120growing":3589,"\u0120testing":3590,"\u0120ir":3591,":\"":3592,"\u0120evidence":3593,"\u0120resource":3594,"\u0120components":3595,"\u0120From":3596,"\u0120ever":3597,"\u0120vari":3598,"bum":3599,"\u0120allowing":3600,"\u0120relig":3601,"\u0120machine":3602,"\u0120King":3603,"pite":3604,"\u0120establish":3605,"\u0120six":3606,"cpp":3607,"\u0120quickly":3608,"arily":3609,"\u0120suff":3610,"ague":3611,"\u0120movement":3612,"vention":3613,"\u0120pie":3614,"url":3615,"\u0120Jan":3616,"\u0120tests":3617,"88":3618,"CRE":3619,"\u0120cred":3620,"\u0120developing":3621,"\u0120vital":3622,"\u0120detect":3623,"\u0120contribute":3624,"\u0120protection":3625,"\u0120rob":3626,"\u0120write":3627,"\u0120points":3628,"\u0120construction":3629,"gn":3630,"yl":3631,"resh":3632,"\u0120visit":3633,"\u0120enjoy":3634,"\u0120schools":3635,"uary":3636,"EST":3637,"git":3638,"\u0120hours":3639,"\u0120therapy":3640,"client":3641,"\u0120technologies":3642,"\u0120final":3643,"\u0120prob":3644,"\u0120\u0120\u0120\u0120\u0120\u0120\u0120\u0120\u0120\u0120\u0120\u0120\u0120\u0120\u0120\u0120\u0120\u0120\u0120\u0120\u0120\u0120\u0120\u0120\u0120\u0120\u0120\u0120\u0120\u0120\u0120\u0120":3645,"\u0120IN":3646,"\u0120involved":3647,"\u0120goals":3648,"\u0120opportunities":3649,"While":3650,"\u0120complete":3651,"\u0120causes":3652,"\u0120town":3653,"\u0120song":3654,"dd":3655,"\u0120added":3656,"\u0120files":3657,"\u0120infect":3658,"[\"":3659,"args":3660,"\u0120/**":3661,"\u0120took":3662,"VER":3663,"ellow":3664,"rm":3665,"\u0120patterns":3666,"\u0120doesn":3667,"90":3668,"lete":3669,"\u0120included":3670,"ply":3671,"force":3672,"vey":3673,"asons":3674,"Event":3675,"\u0120demon":3676,"\u0120recent":3677,"\u0120valu":3678,"\u00e3\u0125":3679,"item":3680,"\u0120really":3681,"\u0120manage":3682,"ulated":3683,"iction":3684,"py":3685,"\u0120tax":3686,"bor":3687,"\u0120length":3688,"\u0120slow":3689,"\u0120caused":3690,"\u0120hy":3691,"\u0120claim":3692,"\u0120Sw":3693,"\u012050":3694,"OS":3695,"\u0120feature":3696,"\u0120?":3697,"\u0120speed":3698,"((":3699,"{}":3700,"\u00d8\u00a7":3701,"\u00e3\u0124":3702,"\u0120won":3703,"itute":3704,"ibrary":3705,"\u0120location":3706,"Def":3707,"Path":3708,"\u0120II":3709,"estern":3710,"lands":3711,"\u0120equipment":3712,"\u0120connection":3713,"abled":3714,"rate":3715,"\u0120sn":3716,"\u0120efforts":3717,"phas":3718,"\u0120America":3719,"\u0120Red":3720,"ridge":3721,"\u0120div":3722,"\u0120video":3723,"room":3724,"\u0120independ":3725,"ribute":3726,"\u0120refer":3727,"\u0120opp":3728,"\u0120received":3729,"rench":3730,"\u0120fi":3731,"\u0120forms":3732,"osition":3733,"\u0120steps":3734,"\u0120extrem":3735,"\u0120travel":3736,"\u012024":3737,"hand":3738,"cret":3739,"MS":3740,"prot":3741,"\u0120psych":3742,"\u0120surv":3743,"cles":3744,"\u0120mor":3745,"\u0120road":3746,"istry":3747,"ille":3748,"\u0120vers":3749,"\u0120games":3750,"\u0120bit":3751,"\u0120demand":3752,"ta":3753,"\u0120sound":3754,"\u0120comprehens":3755,"\u0120love":3756,"ersion":3757,"\u0120actually":3758,"\u0120appl":3759,"\u0120advant":3760,"Or":3761,"OL":3762,"mission":3763,"check":3764,"\u0120computer":3765,"\u0120fig":3766,"lear":3767,"76":3768,"59":3769,"Request":3770,"\u0120fix":3771,"\u0120written":3772,"\u0120immed":3773,"ML":3774,"\u0120ep":3775,"attle":3776,"\u0120greater":3777,"\u0120thought":3778,"\u0120supply":3779,"itation":3780,"03":3781,"\u0120window":3782,"\u0120came":3783,"\u0120names":3784,"\u0120idea":3785,"annel":3786,"\u0120search":3787,"ees":3788,"\u0120**":3789,"rest":3790,"\u0120located":3791,"\u0120accom":3792,"\u0120];":3793,"itution":3794,"\u0120Rem":3795,"\u0120Mon":3796,"Is":3797,"\u0120tr":3798,"che":3799,"\u0120format":3800,"\u0120reve":3801,"idents":3802,"\u0120Ju":3803,"08":3804,"\u0120normal":3805,"encies":3806,"\u0120driv":3807,"\u0120looking":3808,"\u0120operations":3809,"File":3810,"\u0120started":3811,"ino":3812,"\u0120Rep":3813,"But":3814,"ync":3815,"HE":3816,"\u010a\u0109\u0109\u0109\u0109\u0109":3817,"\u0120decisions":3818,"known":3819,"\u0120Techn":3820,"External":3821,"oll":3822,"\u010d\u010a\u010d":3823,"05":3824,"enses":3825,"\u0120mis":3826,"\u0120Set":3827,"gl":3828,"\u0120Many":3829,"\u0120adjust":3830,"box":3831,"\u0120etc":3832,"\u0120len":3833,"\u0120wide":3834,"uk":3835,"\u0120cross":3836,"\u0120card":3837,"\u0120proced":3838,"\u0120policy":3839,"clusion":3840,"\u0120batter":3841,"\u0120landsc":3842,"cover":3843,"\u0120Mod":3844,"\u0120cover":3845,"\u0120Trans":3846,"\u0120win":3847,"lim":3848,"\u0120diseases":3849,"\u0120bacter":3850,"\u0120anx":3851,"\u0120(\"":3852,"\u0120upon":3853,"\u0120produced":3854,"\u0120stri":3855,"\u0120clos":3856,"\u0120date":3857,"\u0120measures":3858,"\u0120nutri":3859,"\u0120organizations":3860,"change":3861,"iber":3862,"Element":3863,"oration":3864,"\u0120vit":3865,"ternet":3866,"\u00e4\u00bb":3867,"level":3868,"\u0120ast":3869,"alls":3870,"\u0120outside":3871,"\u0120Art":3872,"\u0120Not":3873,"\u0120Add":3874,"\u0120matter":3875,"\u0120(`":3876,"\u0120tasks":3877,"\u0120easily":3878,"Field":3879,"\u0120military":3880,"\u0120dry":3881,"\u0120requirements":3882,"These":3883,"\u0120career":3884,"TE":3885,"\u0120stru":3886,"ython":3887,"rition":3888,"Dis":3889,"\u0120TABLE":3890,"yond":3891,"fix":3892,"\u0120Aug":3893,"inct":3894,"\u0120determine":3895,"\u0120IS":3896,"\u010a\u010a\u0120\u0120\u0120\u0120\u0120\u0120\u0120\u0120\u0120\u0120\u0120":3897,"tenance":3898,"\u0120behind":3899,"uries":3900,"\u0120half":3901,"\u0120wood":3902,"\u0120Earth":3903,"bar":3904,"\u0120remains":3905,"\u0120East":3906,"orders":3907,"\u0120beaut":3908,"gram":3909,"\u0120Sm":3910,"\u0120trust":3911,"gor":3912,"\u0120maintaining":3913,"\u0120takes":3914,"ql":3915,"\u0120viol":3916,"\u0120former":3917,"86":3918,"fs":3919,"\u0120City":3920,"\u0120beyond":3921,"\u0120architect":3922,"\u0120eye":3923,"\u010a\u0120\u0120\u0120\u0120\u0120\u0120\u0120\u0120\u0120\u0120\u0120\u0120\u0120\u0120\u0120\u0120\u0120\u0120\u0120\u0120\u0120\u0120\u0120\u0120\u0120\u0120\u0120":3924,"\u0120remove":3925,"urs":3926,"status":3927,"\u0120Gl":3928,"\u0120cele":3929,"\u0120late":3930,"\u0120obtain":3931,"\u0120shown":3932,"\u0120fem":3933,"Context":3934,"\u0120compl":3935,"\u0120server":3936,"ieved":3937,"icate":3938,"56":3939,"\u0120attempt":3940,"\u0120Get":3941,"used":3942,"\u0120memory":3943,"\u0120sometimes":3944,"\u0120talk":3945,"\u0120force":3946,"ouch":3947,"\u0120Ed":3948,"\u0120DEFAULT":3949,"\u0120mom":3950,"elligence":3951,"\u0120surround":3952,"\u0120severe":3953,"iring":3954,"\u0120appropriate":3955,"\u0120Em":3956,"local":3957,"\u0120compared":3958,"\u0120fields":3959,"\u0120initial":3960,"\u0120sil":3961,"rupt":3962,"\u0120dou":3963,"hol":3964,"spec":3965,"amples":3966,"72":3967,"De":3968,"\u0120limited":3969,"\u0120web":3970,"event":3971,"\u0120shape":3972,"\u0120depend":3973,"\u0120See":3974,"\u0120veget":3975,"\u0120emphas":3976,"\u0120Ret":3977,"All":3978,"urg":3979,"\u0120lab":3980,"ros":3981,"\u0120bool":3982,"come":3983,"\u0120Ac":3984,"\u0120Will":3985,"\u0120sex":3986,"base":3987,"\u00d0\u00be\u00d0":3988,"\u0120website":3989,"\u0120Mus":3990,"atively":3991,"\u0120played":3992,"\u0120standards":3993,"\u0120\u0120\u0120\u0120\u0120\u0120\u0120\u0120\u0120\u0120\u0120":3994,"\u0120highly":3995,"\u00e5\u0131":3996,"\u0120ult":3997,"\u0120powerful":3998,"\u0120Research":3999,"board":4000,"\u0120display":4001,"\u0120quant":4002,"\u0120demonstr":4003,"Up":4004,"\u0120fast":4005,"CON":4006,"54":4007,"\u0120exercise":4008,"\u0120advanced":4009,"HT":4010,"fe":4011,"\u00d1\u0123":4012,"\u0120businesses":4013,"allet":4014,"eline":4015,"\u0120Russ":4016,"\u0120Aut":4017,"\u0120average":4018,"\u0120Fran":4019,"\u0120agricult":4020,"\u0120rich":4021,"\u0120third":4022,"vest":4023,"cd":4024,"\u0120poll":4025,"\u0120advance":4026,"\u0120China":4027,"\u0120basic":4028,"\u010a\u0109\u0109\u0109\u0109\u0109\u0109":4029,"NAME":4030,"\u0120client":4031,"\u0120details":4032,"fficient":4033,"\u0120incorpor":4034,"ceed":4035,"\u0120released":4036,"anks":4037,"58":4038,"PR":4039,"\u0120More":4040,"\u0120section":4041,"MO":4042,"result":4043,"\u0120goal":4044,"enge":4045,"\u0120contains":4046,"\u0120hot":4047,"\u0120larger":4048,"\u0120useful":4049,"\u0120storage":4050,"afe":4051,"can":4052,"\u0120controll":4053,"structure":4054,"\u0120fit":4055,"vis":4056,"\u0120generally":4057,"\u0120almost":4058,"\u0120Indian":4059,"\u0120held":4060,"\u0120reach":4061,"max":4062,"\u0120serious":4063,"VE":4064,"\u00c3\u0143":4065,"umber":4066,"\u0120tell":4067,"\u0120becomes":4068,"ildren":4069,"\u0120shap":4070,"\u0120navig":4071,"ship":4072,"\u0120behavi":4073,"\u0120wid":4074,"\u0120named":4075,"\u0120running":4076,"men":4077,"\u0120guide":4078,"\u0120night":4079,"\u0120member":4080,"\u0120responsible":4081,"Info":4082,"top":4083,"\u0120Bar":4084,"\u0120getting":4085,"\u0120breat":4086,"\u0120General":4087,"\u0120stage":4088,"\u0120difference":4089,"\u0120+=":4090,"\u0120tele":4091,"\u0120hol":4092,"pril":4093,"?:":4094,"ched":4095,"\u0120predict":4096,"illing":4097,"\u0120functions":4098,"Index":4099,"\u0120solution":4100,"mark":4101,"IM":4102,"\u0120repl":4103,"\u0120simply":4104,"\u0120align":4105,"From":4106,"\u0120March":4107,"SD":4108,"abase":4109,"\u0120System":4110,"doc":4111,"\u0120Oct":4112,"\u0120lines":4113,"\u0120inside":4114,"iam":4115,"where":4116,"\u0120ideas":4117,"73":4118,"\u0120promote":4119,">,":4120,"isms":4121,"\u0120Ne":4122,"\u0120album":4123,"eq":4124,"\u0120historical":4125,"itude":4126,"\u0120maxim":4127,"\u0120Sim":4128,"\u0120task":4129,"\u0120spirit":4130,"select":4131,"\u0120June":4132,"\u0120Educ":4133,"\u0120West":4134,"\u0120journey":4135,"\u0120sus":4136,"\u0120Public":4137,"\u0120someone":4138,"td":4139,"\u0120trees":4140,"\u0120sal":4141,"rought":4142,"more":4143,"\u0120Pres":4144,"\u0120forest":4145,"Trans":4146,"\u0120signs":4147,"And":4148,"rical":4149,"gorith":4150,"\u0120stat":4151,"perty":4152,"\u0120teeth":4153,"\u0120bound":4154,"ptember":4155,"olve":4156,"\u0120existing":4157,"\u0120dynam":4158,"\u0120cool":4159,"\u0120successful":4160,"\u0120European":4161,"fn":4162,"\u0120County":4163,"\u0120screen":4164,"options":4165,"\u0120yourself":4166,"\u0120diverse":4167,"\u0120images":4168,"\u0120educational":4169,"iveness":4170,"olic":4171,"ederal":4172,"\u0120conflic":4173,"\u0120acad":4174,"ius":4175,"\"]":4176,"ails":4177,"ancy":4178,"AP":4179,"CC":4180,"\u0120miss":4181,"\u0120impl":4182,"parent":4183,"'re":4184,"\u0120choice":4185,"\u0120doing":4186,"group":4187,"input":4188,"\u0120Develop":4189,"\u0120August":4190,"\u0120central":4191,"\u0120vary":4192,"42":4193,"\u0120items":4194,"00000000":4195,"199":4196,"Read":4197,"\u0120wind":4198,"\u0120explain":4199,"ocal":4200,"\u0120Park":4201,"\u0120squ":4202,"\u00c3\u00b3":4203,"\u0120via":4204,"Test":4205,"\u0120vacc":4206,"App":4207,"\u0120Their":4208,"\u0120got":4209,"wise":4210,"Reg":4211,"\u0120January":4212,"cil":4213,"\u0120profession":4214,"DB":4215,"ias":4216,"\u0120release":4217,"write":4218,"\u0120choose":4219,"rand":4220,"resp":4221,"\u0120strength":4222,"\u0120insights":4223,"olar":4224,"\u0120sold":4225,"unt":4226,"\u0120habit":4227,"gra":4228,"\u0120setting":4229,"\u0120rapid":4230,"\u0120Err":4231,"Comp":4232,"then":4233,"rick":4234,"roy":4235,"\u0120polic":4236,"core":4237,"\u0120bill":4238,"iot":4239,"\u0120ones":4240,"\u0120magn":4241,"desc":4242,"ously":4243,"\u0120Data":4244,"\u0120mount":4245,"oke":4246,"\u0120anxiety":4247,"\u0120front":4248,"Client":4249,"uffer":4250,"ava":4251,"\u0120collection":4252,"\u0120dang":4253,"plications":4254,"\u0120mob":4255,"erver":4256,"\u0120cook":4257,"life":4258,"\u0120decre":4259,"\"),":4260,"ATH":4261,"imin":4262,"export":4263,"Class":4264,"\u0120objects":4265,"\u0120insp":4266,"\u0120tour":4267,"\u0120valuable":4268,"oes":4269,"46":4270,"\u0120ancient":4271,"\u0120infra":4272,"last":4273,"HERE":4274,"71":4275,"\u0120planning":4276,"\u0120poor":4277,"push":4278,"\u0120actions":4279,"\u0120International":4280,"\u0120French":4281,"rance":4282,"\u0120warm":4283,"\u0120operation":4284,"PL":4285,"\u0120administ":4286,"\u012040":4287,"\u0120walk":4288,"\u0120assist":4289,"\u0120respond":4290,"useum":4291,"\u0120Def":4292,"\u0120comprehensive":4293,"\u0120strugg":4294,"\u0120Over":4295,"\u0120gradu":4296,"ners":4297,"ipl":4298,"table":4299,"irection":4300,"link":4301,"\u0120friend":4302,"root":4303,"\u0120initi":4304,"expected":4305,"\u0120Additionally":4306,"\u0120AD":4307,"\u0120clin":4308,"\u0120upd":4309,"\u0120negative":4310,"plit":4311,"\u0120purpose":4312,"\u0120core":4313,"`)":4314,"\u0120official":4315,"odies":4316,"\u0120except":4317,"\u0120comfort":4318,"\u0120seem":4319,"Service":4320,"mat":4321,"\u0120eat":4322,"iples":4323,"\u0120investig":4324,"Fl":4325,"\u0120organization":4326,"vironments":4327,"\u0120Lear":4328,"No":4329,"bug":4330,"\u0120Har":4331,"iforn":4332,"\u0120Other":4333,"onent":4334,"reet":4335,"\u0120encourag":4336,"iers":4337,"\u0120emp":4338,"\u0120receive":4339,"uge":4340,"oolean":4341,"sect":4342,"IG":4343,"year":4344,"\u0120weather":4345,"\u0120plays":4346,"\u0120families":4347,"\u0120expand":4348,"\u0120bab":4349,"\u0120April":4350,"\u0120scientific":4351,"\u0120leaves":4352,"\u0120Black":4353,"Tra":4354,"Equal":4355,"\u0120construct":4356,"efore":4357,"\u0120concent":4358,"xf":4359,"\u0120rules":4360,"Of":4361,"\u0120benefit":4362,"/**":4363,"\u0120contract":4364,"\u00e3\u0122\u0124":4365,"\u0120script":4366,"\u0120cop":4367,"\u0120Char":4368,"\u0120Day":4369,"target":4370,"Map":4371,"\u0120Commun":4372,"89":4373,"\u0120handle":4374,"\u0120civil":4375,"\u0120cit":4376,"\u0120July":4377,"\u0120animal":4378,"\u0120station":4379,"ctx":4380,"\u0120Inter":4381,"\u0120ensures":4382,")]":4383,"\u0120First":4384,"\u0120bur":4385,"\u0120rates":4386,"Inst":4387,"\u0120September":4388,"PS":4389,"\u0120Air":4390,"ech":4391,"\u0120(!":4392,"\u0120AS":4393,"\u0120#[":4394,"omet":4395,"wrap":4396,"ifornia":4397,"\u0120store":4398,"ira":4399,"\u0120>>":4400,"aur":4401,"ycl":4402,"\u0120lat":4403,"Form":4404,"([":4405,"UM":4406,"\u0120numbers":4407,"hether":4408,"\u0120German":4409,"\u0120currently":4410,"\u0120complet":4411,"\u0120Pre":4412,"\u0120ing":4413,"unch":4414,"\u0120consumption":4415,"module":4416,"\u0120settings":4417,"07":4418,"})":4419,"airs":4420,"\u0120Her":4421,"uster":4422,"\u0120tiss":4423,"\u0120trig":4424,"\u0120reported":4425,"Response":4426,"\u0120flex":4427,"born":4428,"dat":4429,"Query":4430,"ham":4431,"oice":4432,"\u0120serve":4433,"({":4434,"PC":4435,"\u0120According":4436,"page":4437,"\u0120exposure":4438,"ula":4439,"\u0120vill":4440,"\u0120humans":4441,"otype":4442,"\u0120El":4443,"\u0120My":4444,"\u0120hor":4445,"\u0120month":4446,"DATE":4447,"\u0120tend":4448,"06":4449,"Code":4450,"Att":4451,"overy":4452,"cember":4453,"\u0120trend":4454,"rogen":4455,"NO":4456,"ued":4457,"So":4458,"\u0120lib":4459,"otal":4460,"BU":4461,"\u0120Fin":4462,"\u0120environments":4463,"202":4464,"\u0120structures":4465,"sg":4466,"anc":4467,"After":4468,"free":4469,"water":4470,"ios":4471,"ocker":4472,"\u0120relationships":4473,"\u0120October":4474,"aid":4475,"\u0120thing":4476,"oding":4477,"\u0120mo":4478,"Text":4479,"ovember":4480,"BA":4481,"\u0120commer":4482,"zz":4483,"format":4484,"book":4485,"\u0120infl":4486,"\u0120Bo":4487,"div":4488,"\u0120workers":4489,"\u0120label":4490,"\u0120Jew":4491,"\u0120array":4492,"\u0120title":4493,"pass":4494,"\u0120distributed":4495,"\u0120kids":4496,"\u0120concerns":4497,"osystem":4498,"ords":4499,"\u0120ang":4500,"=\"$":4501,"uses":4502,"CK":4503,"\u0120maintenance":4504,"\u0120recommend":4505,"\u0120processing":4506,"\u0120AND":4507,"ipe":4508,"\u0120fuel":4509,"\u0120qual":4510,"\u0120ord":4511,"67":4512,"porary":4513,"\u0120purch":4514,"\u0120commonly":4515,"\u0120thinking":4516,"\u0120prop":4517,"\u0120mother":4518,"\u0120interpre":4519,"range":4520,"52":4521,"equ":4522,"ranch":4523,"See":4524,"\u010a\u0109\u0120\u0120\u0120":4525,"\u0120emissions":4526,"\u0120shift":4527,"\u0120books":4528,"\u0120monitoring":4529,"ifying":4530,"\u0120news":4531,"iar":4532,"\u0120cou":4533,"\u0120examples":4534,"\u0120aspects":4535,"\u0120capacity":4536,"\u0120Science":4537,"\u0120stream":4538,"ROM":4539,"\u0120unit":4540,"pc":4541,"hest":4542,"\u0120minutes":4543,"\u0120teachers":4544,"43":4545,"\u0120lost":4546,"\u0120hands":4547,"\u0120Ant":4548,"\u0120der":4549,"\u0120speak":4550,"\u0120pet":4551,"\u0120situation":4552,"\u0120interface":4553,"\u01202006":4554,"\u0120replace":4555,"\u0120constant":4556,"elt":4557,"PO":4558,"\u0120isn":4559,"\u0120dark":4560,"conf":4561,"\u012021":4562,"\u0120thus":4563,"connect":4564,"related":4565,"\u0120\u0120\u0120\u0120\u0120\u0120\u0120\u0120\u0120":4566,"Size":4567,"iny":4568,"pty":4569,"ognitive":4570,"lay":4571,"\u0120tail":4572,"\u0120acid":4573,"\u0120SET":4574,"`.":4575,"\u0120hon":4576,"lier":4577,"\u0120teaching":4578,"\u0120ded":4579,"\u010a\u0120\u0120\u0120\u0120\u0120\u0120\u0120\u0120\u0120\u0120\u0120\u0120\u0120":4580,"\u0120believe":4581,"rong":4582,"\u0120scientists":4583,"\u0120presence":4584,"\u0120OR":4585,"\u0120cam":4586,"\u0120football":4587,"\u0120item":4588,"\u0120expert":4589,"\u0120reduced":4590,"\u0120Canada":4591,"\u0120cert":4592,"\u0120scale":4593,"\u0120California":4594,"\u0120Mc":4595,"rast":4596,"gy":4597,"\u0120component":4598,"\u0120defined":4599,"ESS":4600,"\u0120\u00c3":4601,"09":4602,"urt":4603,"cf":4604,"\u0120Are":4605,"\u0120exit":4606,"abetes":4607,"\u0120River":4608,"\u0120update":4609,"\u0120categ":4610,"\u0120labor":4611,"FL":4612,"Status":4613,"\u0120transfer":4614,"\u00e2\u0122\u00a6":4615,"pat":4616,"\u0120Of":4617,"bal":4618,"\u0120garden":4619,"\u0120celebr":4620,"\u0120During":4621,"\u0120consequ":4622,"\u0120trade":4623,"SET":4624,"ORT":4625,"impl":4626,"\u0120protein":4627,"\u0120joint":4628,"wide":4629,"include":4630,"cohol":4631,"icon":4632,"\u0120Africa":4633,"aa":4634,"Ph":4635,"\u010a\u0109\u0120":4636,"\u0120agree":4637,".)":4638,"\u0120perfect":4639,"\u0120bad":4640,"\u0120everyone":4641,"47":4642,"\u0120places":4643,"\u0120Net":4644,"\u0120shared":4645,"\u0120immune":4646,"\u0120algorith":4647,"uns":4648,"stream":4649,"cx":4650,"\u0120sugar":4651,"ding":4652,"olving":4653,"anges":4654,"atur":4655,"\u0120Its":4656,"rant":4657,"\u0120Sk":4658,"\u0120fight":4659,"63":4660,"ulner":4661,"\u0120secure":4662,"\u0120opportunity":4663,"\u00e4\u00ba":4664,"era":4665,"erus":4666,"ilk":4667,"eks":4668,"ashing":4669,"ided":4670,"ensity":4671,"\u0120attract":4672,"Be":4673,"\u0120fully":4674,"True":4675,"\u0120born":4676,"ico":4677,"\u0120KEY":4678,"\u0120hous":4679,"\u0120excess":4680,"wo":4681,"break":4682,"TER":4683,"\u0120jud":4684,"\u0120carry":4685,"\u0120smaller":4686,"\u0120RE":4687,"true":4688,"hent":4689,"elines":4690,"\u0120Associ":4691,"\u0120UK":4692,"\u0120rule":4693,"61":4694,"VID":4695,"53":4696,"\u0120helping":4697,"View":4698,"\u0120easier":4699,"Some":4700,"\u0120internal":4701,"TY":4702,"\u0120surg":4703,"\u01202015":4704,"\u0120capital":4705,"ris":4706,"MENT":4707,"\u0120Spec":4708,"Man":4709,"\u0120practical":4710,"ica":4711,"\u0120infection":4712,"\u0120exact":4713,"*/":4714,"ificial":4715,"\u0120Pat":4716,"\u0120hope":4717,"\u0120box":4718,"Met":4719,"\u0120offering":4720,"\u0120center":4721,"IST":4722,"\u0120room":4723,"formation":4724,"TO":4725,"\u0120Australia":4726,"aul":4727,"\u0120instru":4728,"des":4729,"IF":4730,"\u0120improving":4731,"CREATE":4732,"\u0120pict":4733,"orthern":4734,"block":4735,"urb":4736,"\u0120drink":4737,"\u0120save":4738,"\u0120{}":4739,"\u0120CON":4740,"\u0120December":4741,"\u0120regions":4742,"\u0120African":4743,"ebru":4744,"---":4745,"\u0120north":4746,"\u0120outcomes":4747,"eli":4748,"\u0120numerous":4749,"57":4750,"\u0120propos":4751,"\u0120perspect":4752,"\u0120awareness":4753,"\u00e6\u013e":4754,"current":4755,"Rec":4756,"\u0120stories":4757,"req":4758,"\u0120player":4759,"\u0120height":4760,"gress":4761,"body":4762,"());":4763,"hema":4764,"request":4765,"\u0120apply":4766,"\u0120challenge":4767,"\u0120Ang":4768,"Out":4769,"\u0120vict":4770,"inding":4771,"\u0120resistance":4772,"\u0120bra":4773,"ses":4774,"\u0120affected":4775,"\u0120November":4776,"\u0120\u00ec":4777,"inese":4778,"\u0120Up":4779,"\u0120ign":4780,"2011":4781,"pped":4782,"\u0120band":4783,"iding":4784,"\u0120layer":4785,"PATH":4786,"\u0120ecosystem":4787,"\u0120bacteria":4788,"cs":4789,"ama":4790,"\u0120landscape":4791,"\u0120improved":4792,"acing":4793,"uman":4794,"allow":4795,"acters":4796,"\u0120doctor":4797,"\u0120returns":4798,"\u0120estim":4799,"oken":4800,"\u0120<<":4801,"\u0120resil":4802,"else":4803,"ebruary":4804,"\u0120burn":4805,"\u0120urban":4806,"\u0120continues":4807,"\u0120everything":4808,"chain":4809,"\u0120feet":4810,"\u0120allowed":4811,"\u0120Dav":4812,"ondon":4813,"41":4814,"\u0120reasons":4815,"\u0120soon":4816,"LECT":4817,"\u0120infrastructure":4818,"ecause":4819,"\u0120scen":4820,"ifier":4821,"\u0120intelligence":4822,"\u0120Most":4823,"\u0120Center":4824,"\u0120earth":4825,"\u0120doc":4826,"\u0120eating":4827,"rew":4828,"\u0120commercial":4829,"\u0120smart":4830,"opyright":4831,"Sub":4832,"oe":4833,"apter":4834,"tx":4835,"\u0120sea":4836,"\u0120Read":4837,"aled":4838,"going":4839,"cean":4840,"ouncil":4841,"\u0120changed":4842,"estic":4843,"\u0120rise":4844,"\u0120WHERE":4845,"\u0120Hol":4846,"\u0120Cour":4847,"\u0120Ke":4848,"\u0120nation":4849,"\u0120\u00c2":4850,"\u0120Institute":4851,"AM":4852,"ools":4853,"style":4854,"ara":4855,"62":4856,"\u0120consult":4857,"\u0120plans":4858,"\u0120went":4859,"#!":4860,"output":4861,"EO":4862,"update":4863,"env":4864,"][":4865,"outhern":4866,"craft":4867,"\u0120policies":4868,"\u0120therefore":4869,"\u0120industrial":4870,"semb":4871,"TP":4872,"locks":4873,"cal":4874,"rive":4875,"NS":4876,"\u0120Ap":4877,"Item":4878,"\u0120Our":4879,"\u0120professionals":4880,"#[":4881,"\u0120economy":4882,"omy":4883,"server":4884,"\u0120Water":4885,"\u0120novel":4886,"Americ":4887,"\u0120egg":4888,"\u0120adults":4889,"\u0120depending":4890,"\u0120facilit":4891,"\u0120rock":4892,"aign":4893,"\u0120England":4894,"\u0120Phil":4895,"olec":4896,"XX":4897,"urance":4898,"\u0120background":4899,"adata":4900,"\"`":4901,"Group":4902,"\u0120beginning":4903,"orest":4904,"\u0120returned":4905,"\u0120mess":4906,"ooth":4907,"riend":4908,"\u01202020":4909,"\u0120birth":4910,"\u0120acqu":4911,"ishing":4912,"\u0120Each":4913,"./":4914,"Result":4915,"\u0120q":4916,"\u0120pow":4917,"\u0120fa":4918,"\u0120fresh":4919,"\u0120eyes":4920,"\u0120stra":4921,"\u0120nutrition":4922,"\u0120Govern":4923,"\u0120mid":4924,"\u00e5\u012a":4925,"\u0120involve":4926,"User":4927,"\u00d0\u00b0\u00d0":4928,"\u0120swe":4929,"\u0120API":4930,"////////":4931,"\u0120fear":4932,"\u0120Found":4933,"\u0120College":4934,"\u0120answer":4935,"\u0120sequ":4936,"\u0120syn":4937,"reek":4938,"mm":4939,"cat":4940,"roid":4941,"ART":4942,"\u0120failed":4943,"\u0120academic":4944,"coin":4945,"rics":4946,"Hand":4947,"\u0120weeks":4948,"ying":4949,"\u0120recommended":4950,"\u0120distribution":4951,"\u0120column":4952,"\u0120cold":4953,"=\"-":4954,"\u0120forward":4955,"\u01202011":4956,"usion":4957,"\u00c3\u00bc":4958,"\u0120son":4959,"obj":4960,"ensions":4961,"\u0120[[":4962,"\u0120manufacturing":4963,"\u0120ON":4964,"Array":4965,"\u0120uint":4966,"unwrap":4967,"house":4968,"\u00c3\u00a4":4969,"attr":4970,"\u0120served":4971,"\u0120plastic":4972,"olved":4973,"<'":4974,"\u0120metal":4975,"istor":4976,"\u0120mode":4977,"erved":4978,"\u0120largest":4979,"\u0120accurate":4980,"ottom":4981,"insert":4982,"\u0120laws":4983,"\u0120San":4984,"Le":4985,"\u0120mit":4986,"\u0120Let":4987,"rie":4988,"\u0120Vir":4989,"\u0120vision":4990,"\u0120passed":4991,"atically":4992,"\u0120south":4993,"\u0120gold":4994,"\u0120informed":4995,"\u0120Dist":4996,"\u0120anti":4997,"inition":4998,"\u0120Ok":4999,"eper":5000,"\u0120Don":5001,"\u0120identity":5002,"mode":5003,"ailed":5004,"road":5005,"\u0120moment":5006,"\u0120forces":5007,"Over":5008,"\u0120imag":5009,"sm":5010,"Aut":5011,"\u0120staff":5012,"\u0120although":5013,"\u0120sort":5014,"\u0120enter":5015,"\u0120summer":5016,"\u0120hair":5017,"\u0120older":5018,"see":5019,"append":5020,"\u0120described":5021,"\u012022":5022,"\u0120becoming":5023,"itis":5024,"\u0120actual":5025,"\u0120inflamm":5026,"estyle":5027,"AI":5028,"Su":5029,"\u010a\u0120\u0120\u0120\u0120\u0120\u0120\u0120\u0120\u0120\u0120\u0120\u0120\u0120\u0120\u0120\u0120\u0120\u0120\u0120\u0120\u0120\u0120\u0120\u0120\u0120\u0120\u0120\u0120\u0120\u0120\u0120\u0120\u0120\u0120\u0120\u0120\u0120\u0120\u0120\u0120":5030,"\u0120graph":5031,"\u0120mention":5032,"Spec":5033,"eration":5034,"\u0120renew":5035,"gener":5036,"arian":5037,"\u0120Work":5038,"\u0120vulner":5039,"\u0120Ben":5040,"\u0120religious":5041,"\u0120Education":5042,"SC":5043,"\u01202016":5044,"igen":5045,"85":5046,"\u0120mal":5047,"ado":5048,"\u0120Port":5049,"\u0120note":5050,"rab":5051,"ani":5052,"oles":5053,"None":5054,"\u0120principles":5055,"\u0120row":5056,"width":5057,"\u0120starting":5058,"icated":5059,"\u0120errors":5060,"\u0120Cor":5061,"\u0120hosp":5062,"\u0120mig":5063,"\u0120absor":5064,"LL":5065,"\u0120instruct":5066,"rated":5067,"\u0120TO":5068,"ibly":5069,"\u0120fert":5070,"cmd":5071,"ras":5072,"emy":5073,"\u0120male":5074,"\u0120theory":5075,"\u0120properly":5076,"\u0120peace":5077,"\u0120relevant":5078,"\u0120buildings":5079,"hetic":5080,"ping":5081,"\u0120continued":5082,"rief":5083,"Desc":5084,"\u0120applied":5085,"\u0120offic":5086,"\u0120gives":5087,"\u00e7\u0136":5088,"\u0120generate":5089,"Options":5090,"\u0120Church":5091,"\u0120ten":5092,"!(\"":5093,"\u0120London":5094,"\u0120recovery":5095,"\u0120virtual":5096,"\u0120muscle":5097,"\u0120chain":5098,"ugin":5099,"\u0120distinct":5100,"cons":5101,"\u0120rare":5102,"\u0120ideal":5103,"UB":5104,"\u0120Prof":5105,"\u0120February":5106,"izer":5107,"\u0120std":5108,"yles":5109,"\u0120father":5110,"Message":5111,"\u0120citiz":5112,"\u0120List":5113,"orial":5114,"ij":5115,"Call":5116,"lor":5117,"\u0120died":5118,"NULL":5119,"hab":5120,"\\\"":5121,"\u0120strategy":5122,"\u01202014":5123,"\u0120UN":5124,"\u0120Department":5125,"\u0120followed":5126,"\u0120module":5127,"unk":5128,"\u0120boost":5129,"\u0120thous":5130,"color":5131,"ifically":5132,"\u0120toward":5133,"ares":5134,"\u01202010":5135,"\u0120east":5136,"sec":5137,"\u0120aw":5138,"\u0120House":5139,"\u00e4\u00bd":5140,"\u0120blue":5141,"tmp":5142,"\u0120resulting":5143,"ribe":5144,"urity":5145,"\u0120Chinese":5146,"\u0120neigh":5147,"\u0120raise":5148,"contain":5149,"\u0120occurs":5150,"unicip":5151,"\u0120whose":5152,"rote":5153,"\u0120directory":5154,"aint":5155,"oom":5156,"\u0120price":5157,"\u0120birds":5158,"idden":5159,"\u0120IP":5160,"ingu":5161,"\u0120Ref":5162,"\u0120colon":5163,"\u0120dead":5164,"oday":5165,"\u0120generation":5166,"gu":5167,"\u0120specified":5168,"\u0120Roman":5169,"mosp":5170,"alle":5171,"\u0120differences":5172,"\u0120entry":5173,"Table":5174,"\u010d\u010a\u0120\u0120\u0120\u0120\u0120\u0120\u0120\u0120\u0120\u0120\u0120":5175,"\u0120characters":5176,"\u0120send":5177,"\u0120cycle":5178,"\u0120quite":5179,"rees":5180,"\u0120engage":5181,"\u0120stim":5182,"\u0120temperatures":5183,"\u0120sav":5184,"cel":5185,"\u0120creation":5186,"\u0120friends":5187,"script":5188,"ordin":5189,"\u0120encourage":5190,"\u0120brought":5191,"\u0120execut":5192,"QL":5193,"\u0120\"\"":5194,"rich":5195,"\u0120manufacture":5196,"mem":5197,"\u0120impacts":5198,"\u0120prepar":5199,"\u0120genetic":5200,"\u0120leave":5201,"SON":5202,"\u0120moist":5203,"Can":5204,"\u0120enable":5205,"\u0120probably":5206,"FILE":5207,"\u0120potentially":5208,"CD":5209,"entry":5210,"oyal":5211,"match":5212,"\u0120cand":5213,"\u01202017":5214,"eries":5215,"\u00e8\u00bf":5216,"\u0120OF":5217,"Log":5218,"\u0120completed":5219,"position":5220,":</":5221,"ocr":5222,"\u0120degree":5223,"ought":5224,"Pe":5225,"\u0120alternative":5226,"\u0120Although":5227,"\u0120ID":5228,"\u0120corn":5229,"image":5230,"\u0120regulations":5231,"\u0120rot":5232,"\u0120synt":5233,"PRO":5234,"\u0120Out":5235,"\u0120tooth":5236,"iant":5237,"\u0120remember":5238,"erate":5239,"\u0120mag":5240,"ulating":5241,"\u0120mer":5242,"RL":5243,"next":5244,"Fil":5245,"});":5246,"\u0120managing":5247,"udd":5248,"\u0120sector":5249,"\u0120platforms":5250,"oto":5251,"erb":5252,"\u0120industries":5253,"\u0120board":5254,"\u0120Const":5255,"\u0120saw":5256,"\u0120changing":5257,"\u0120Law":5258,"\u0120dogs":5259,"names":5260,"\u0120investment":5261,"\u0120connections":5262,"\u0120Bra":5263,"\u0120connected":5264,"\u0120diabetes":5265,"\u0120influen":5266,"isation":5267,"||":5268,"\u0120filter":5269,"ARCH":5270,"inn":5271,"\u0120innovation":5272,"\u0120pick":5273,"oses":5274,"orms":5275,"():":5276,"\u0120goes":5277,"\u00e1\u0125":5278,"\u0120exhib":5279,"Date":5280,"std":5281,"\u0120deal":5282,"CP":5283,"ups":5284,"\u0120instit":5285,"\u0120increasingly":5286,"\u0120native":5287,"apping":5288,"\u0120Christian":5289,"sole":5290,"anguages":5291,"\u0120excell":5292,"mitted":5293,"\u00e5\u00ae":5294,"\u0120cognitive":5295,"\u0120divers":5296,"mary":5297,"amental":5298,"MM":5299,"EL":5300,"\u0120...":5301,"\u0120pen":5302,"\u0120star":5303,"\u0120approx":5304,"\u0120convers":5305,"\u0120sites":5306,"content":5307,"\u0120pregn":5308,"\u0120export":5309,"rix":5310,"\u0120alcohol":5311,"\u0120varchar":5312,"long":5313,"\u0120engineering":5314,"rops":5315,"Build":5316,"\u0120Met":5317,"\u0120drug":5318,"open":5319,"inder":5320,"\u0120jo":5321,"\u0120sports":5322,"\u0120notice":5323,"writ":5324,"bb":5325,"\u0120ready":5326,"\u0120tips":5327,"ifications":5328,"\u0120increases":5329,"\u0120club":5330,"Inter":5331,"\u0120tru":5332,"\u0120nutrients":5333,"\u0120Return":5334,"\u0120volume":5335,"\u0120Jes":5336,"\u010a\u010a\u0120\u0120\u0120\u0120\u0120":5337,"\u0120moved":5338,"\u0120bul":5339,"\u01202012":5340,"\u0120belief":5341,"American":5342,"\u012023":5343,"\u0120causing":5344,"only":5345,"\u0120widely":5346,"idget":5347,"Bl":5348,"\u01202000":5349,"\u0120promoting":5350,"omb":5351,"Start":5352,"\u0120Create":5353,"82":5354,"empty":5355,"has":5356,"\u01202007":5357,"\u0120cities":5358,"\"></":5359,"\u0120rain":5360,"rome":5361,"\u0120frequently":5362,"\u0120Open":5363,"\u0120treatments":5364,"\u01202008":5365,"Head":5366,"\u0120Type":5367,"\u0120heavy":5368,"\u0120'',":5369,"\u012060":5370,"pm":5371,"\u0120coast":5372,"\u0120supported":5373,"\u0120significance":5374,"\u0120combination":5375,"\u0120placed":5376,"\u0120sed":5377,"\u0120middle":5378,"\u0120revolution":5379,"kg":5380,"\u0120factor":5381,"\u0120battery":5382,"buf":5383,"\u0120fair":5384,"nel":5385,"\u0120situations":5386,"\\\\":5387,"\u0120failure":5388,"zing":5389,"ampions":5390,"\u0120Mark":5391,"orge":5392,"lo":5393,"iences":5394,"\u0120worked":5395,"etime":5396,"\u0120prefer":5397,"olume":5398,"urrent":5399,"anging":5400,"isf":5401,"\u0120suitable":5402,"war":5403,"\u0120HT":5404,"\u0120trying":5405,"\u0120characteristics":5406,"uit":5407,"\u0120Us":5408,"rl":5409,"\u0120direction":5410,"msg":5411,"\u0120winter":5412,"Ed":5413,"83":5414,"\u0120func":5415,"cell":5416,"\u0120Just":5417,"\u0120challenging":5418,"method":5419,"\u0120electrical":5420,"anish":5421,"\u0120EX":5422,"\u01202018":5423,"\u0120repe":5424,"\u0120cast":5425,"ya":5426,"\u0120charg":5427,"\u0120giving":5428,"\u0120Sub":5429,"onds":5430,"\u0120supports":5431,"\u0120drive":5432,"\u0120Sch":5433,"84":5434,"\u01202013":5435,"\u0120round":5436,"udget":5437,"\u0120planet":5438,"option":5439,"MD":5440,"\u0120fmt":5441,"\u0120moving":5442,"\u0120rein":5443,"query":5444,"SA":5445,"\u0120digest":5446,"iful":5447,"la":5448,"\u0120recycl":5449,"\u0120dental":5450,"\u0120homes":5451,"iately":5452,"BC":5453,"\u0120alone":5454,"RES":5455,"\u0120weak":5456,"However":5457,"ca":5458,"\u0120bank":5459,"\u0120transl":5460,"\u0120reality":5461,"\u0120glass":5462,"ida":5463,"\u0120ice":5464,"\u0120performed":5465,"\u0120den":5466,"cher":5467,"51":5468,"uint":5469,"\u0120Great":5470,"\u0120touch":5471,"\u0120pref":5472,"win":5473,"parse":5474,"TR":5475,"87":5476,"ENT":5477,"tag":5478,"\u0120Option":5479,"\u0120League":5480,"exp":5481,"\u0120occup":5482,"\u0120Pal":5483,"\u0120ago":5484,"Select":5485,"\u0120electricity":5486,"\u0120sustainability":5487,"ums":5488,"ERR":5489,"\u01202005":5490,"\u0120detailed":5491,"adian":5492,"post":5493,"\u0120completely":5494,">>":5495,"\u0120records":5496,"\u01202009":5497,"\u0120sets":5498,"\u0120Union":5499,"ald":5500,"\u0120concepts":5501,"\u0120push":5502,"CI":5503,"\u0120playing":5504,"QU":5505,"\u0120reference":5506,"\u0120Check":5507,"title":5508,"\u0120conservation":5509,"\u0120illust":5510,"\u0120Germany":5511,"\u0120illness":5512,"\u0120Green":5513,"\u0120Whether":5514,"\u0120nuc":5515,"\u0120Prov":5516,"Why":5517,"\u0120formed":5518,"\u0120database":5519,"\u0120molec":5520,"\u0120Mich":5521,"century":5522,"\u0120rat":5523,"\u0120Isra":5524,"\u0120baby":5525,"\u01202019":5526,"\u0120basis":5527,"ocation":5528,"\u00e6\u013a":5529,"ifies":5530,"\u0120leads":5531,"\u0120La":5532,"\u0120AN":5533,"och":5534,"\u0120atmosp":5535,"\u0120organic":5536,"Comm":5537,"\u0120mouth":5538,"\u0120teams":5539,"\u0120introduced":5540,"atin":5541,"\u0120usage":5542,"\u0120campaign":5543,"\u0120vehicle":5544,"\u00e5\u0127":5545,"\u0120counter":5546,"\u0120((":5547,"rivate":5548,"\u0120Understanding":5549,"\u0120horm":5550,"leg":5551,"\u0120Environment":5552,"\u0120motiv":5553,"\u0120narr":5554,"\u0120disorders":5555,"ii":5556,"#!/":5557,"resents":5558,"Understanding":5559,"\u0120wond":5560,"Gener":5561,"\u0120journal":5562,"PA":5563,"making":5564,"span":5565,"\u0120consistent":5566,"\u0120office":5567,"faces":5568,"\u0120external":5569,"\u0120chronic":5570,"\u0120favor":5571,"\u0120Prot":5572,"undred":5573,"\u0120phil":5574,"\u0120solid":5575,"iling":5576,"andom":5577,"\u0120vehicles":5578,"\u0120announ":5579,"pol":5580,"\u0120distance":5581,"efined":5582,"\u0120regarding":5583,"Source":5584,"bi":5585,"\u0120regularly":5586,"\u0120prompt":5587,"\u0120emotions":5588,"\u0120nearly":5589,"dule":5590,"\u0120sem":5591,"\u0120Association":5592,"but":5593,"process":5594,"main":5595,"\u0120\u0120\u0120\u0120\u0120\u0120\u0120\u0120\u0120\u0120\u0120\u0120":5596,"\u0120France":5597,"\u0120technique":5598,"filter":5599,"\u0120watch":5600,"itage":5601,"\u0120transaction":5602,"\u0120bed":5603,"\u0120Program":5604,"\u00e0\u00b8":5605,"\u00c3\u00b6":5606,"\u0120experienced":5607,"haps":5608,"End":5609,"\u0120linked":5610,"95":5611,"iat":5612,"perties":5613,"\u0120Mor":5614,"\u0120container":5615,"SH":5616,"oma":5617,"\u0120ball":5618,"\u0120appoint":5619,"da":5620,"\u0120compliance":5621,"\u0120Bel":5622,"\u0120\u00d7":5623,"\u0120conver":5624,"\u0120tox":5625,"\u0120sch":5626,"000000":5627,"\u0120employees":5628,"\u0120beneficial":5629,"\u0120worth":5630,"\u00e2\u0122\u013f.":5631,"\u0120empty":5632,"\u00e5\u0132":5633,"\u0120spring":5634,"\u0120Inc":5635,"oved":5636,"\u0120leaders":5637,"ste":5638,"gin":5639,"\u0120bodies":5640,"\u0120elimin":5641,"\u0120wrote":5642,"################################":5643,"hedule":5644,"\u0120History":5645,"\u0120infections":5646,"Per":5647,"\u0120anything":5648,"\u0120>=":5649,"\u0120offset":5650,"\u0120Mex":5651,"\u0120frag":5652,"SION":5653,"\u0120pred":5654,"\u0120engaging":5655,"\u0120\u0120\u0120\u0120\u0120\u0120\u0120\u0120\u0120\u0120":5656,"abs":5657,"\u0120earlier":5658,"\u0120choices":5659,"ACK":5660,"\u0120technical":5661,"\u0120himself":5662,"anned":5663,"\u01202021":5664,"imal":5665,"SP":5666,"lines":5667,"\u0120os":5668,"\u0120enhancing":5669,"oul":5670,"\u0120immediately":5671,"\u0120wallet":5672,"\u0120Even":5673,"friend":5674,"\u0120expression":5675,"urthermore":5676,"\u0120depression":5677,"\u0120du":5678,"\u0120female":5679,"(_":5680,"\u0120'\\":5681,"\u0120Arch":5682,"\u0120primarily":5683,"\u0120pip":5684,"\u0120transition":5685,"conds":5686,"\u0120FROM":5687,"find":5688,"foo":5689,"\u0120teach":5690,"\u0120President":5691,"\u0120foreign":5692,"Input":5693,"\u0120refers":5694,"\u0120Conf":5695,"Ass":5696,"\u0120Project":5697,"\u0120raw":5698,"xygen":5699,"\u0120Make":5700,"Count":5701,"=$(":5702,"\u0120cyber":5703,"\u0120piece":5704,"ptr":5705,"\u0120income":5706,"\u0120spaces":5707,"\u0120auth":5708,"\u0120rh":5709,"reedom":5710,"\u0120Foundation":5711,"\u0120signal":5712,"gment":5713,"\u0120removed":5714,"\u0120colors":5715,"eding":5716,"\u0120surrounding":5717,"\u0120district":5718,"\u0120Att":5719,"\u0120institutions":5720,"\u0120spiritual":5721,"\u0120wear":5722,"\u0120eventually":5723,"\u0120Social":5724,"flags":5725,"dep":5726,"\u0120accuracy":5727,"/$":5728,"vents":5729,"\u0120fruit":5730,"\u0120feelings":5731,"\u0120sample":5732,"\u0120liqu":5733,"\u0120church":5734,"Pr":5735,"\u0120spect":5736,"\u0120networks":5737,"wood":5738,"\u0120lifestyle":5739,"Check":5740,"gest":5741,"\u0120motor":5742,"\u0120faster":5743,"\u0120federal":5744,"URL":5745,"\u0120units":5746,"\u0120pric":5747,"ashington":5748,"Rem":5749,"\u0120assessment":5750,"\u0120Since":5751,"Pol":5752,"\u0120destroy":5753,"\u0120selected":5754,"\u0120serves":5755,"number":5756,"rum":5757,"\u0120alt":5758,"\u0120aid":5759,"clusive":5760,"\u0120accessible":5761,"WOR":5762,"AA":5763,"poses":5764,"\u0120topic":5765,"\").":5766,"\u0120Development":5767,"\u0120Class":5768,"ributes":5769,"hi":5770,";;":5771,"\u0120People":5772,"\u0120Through":5773,"\u0120focused":5774,"\u0120mission":5775,"\u0120Sur":5776,"\u0120identified":5777,"\u0120court":5778,"\u0120Off":5779,"\u0120collaboration":5780,"umin":5781,"\u0120True":5782,"\u0120Gra":5783,"\u010d\u010a\u0120":5784,"model":5785,"ipped":5786,"asure":5787,"king":5788,"\u0120Japanese":5789,"\u0120framework":5790,"istent":5791,"ulum":5792,"xid":5793,"\u0120separate":5794,"\u0120hyp":5795,"\u0120supporting":5796,"\u0120double":5797,"\u0120generated":5798,"ario":5799,"ibilities":5800,"\u0120barri":5801,"\u0120seeds":5802,"\u0120evolution":5803,"template":5804,"atal":5805,"\u0120belong":5806,"oz":5807,"\u0120medicine":5808,"\u0120String":5809,"\u012028":5810,"label":5811,"frame":5812,"web":5813,"\u0120equal":5814,"\u0120foundation":5815,"\u0120Mal":5816,"\u0120insect":5817,"ini":5818,"\u0120routine":5819,"\u0120Main":5820,"rd":5821,"aters":5822,"INE":5823,"\u0120represents":5824,"SY":5825,"usr":5826,"\u0120contrast":5827,"\u0120compar":5828,"\u0120clinical":5829,"\u0120master":5830,"\u0120appearance":5831,"\u0120deliver":5832,"\u0120virus":5833,"\u0120experts":5834,"\u0120deeper":5835,"FO":5836,"\u0120adding":5837,"\u0120bone":5838,"\u0120driving":5839,"\u0120teacher":5840,"\u0120disorder":5841,"CTION":5842,"\u0120COVID":5843,"umes":5844,"\u0120Rel":5845,"\u0120creates":5846,"ka":5847,"\u0120injury":5848,"\u0120deploy":5849,"\u0120park":5850,"\u00e6\u0138":5851,",-":5852,"Des":5853,"\u012026":5854,"\u0120Management":5855,"\u0120Hel":5856,"\u0120highest":5857,"EG":5858,"\u0120yield":5859,"\u0120classes":5860,"\u0120::":5861,"\u0120keeping":5862,"\u0120pollution":5863,"\u0120buff":5864,"printf":5865,"\u0120Western":5866,"\u0120spot":5867,"gent":5868,"imer":5869,"\u0120kid":5870,"><":5871,"\u0120Jesus":5872,"\u0120coming":5873,"ARY":5874,"\u0120(*":5875,"\u0120reliable":5876,"idential":5877,"covery":5878,"\u0120approaches":5879,"\u0120consequences":5880,"\u0120Also":5881,"\u0120implementation":5882,"\u0120roles":5883,"\u0120interactions":5884,"\u0120tissue":5885,"\u0120\u0120\u0120\u0120\u0120\u0120\u0120\u0120\u0120\u0120\u0120\u0120\u0120\u0120\u0120":5886,"\u0120findings":5887,"81":5888,"\u0120gir":5889,"abling":5890,"ATION":5891,"window":5892,"\u0120gender":5893,"\u0120Organ":5894,"\u0120inflammation":5895,"udo":5896,"orough":5897,"\u0120territ":5898,"\u0120wrong":5899,"\u0120mitig":5900,"\u0120Council":5901,"\u0120recently":5902,"\u0120Cong":5903,"edia":5904,"\u0120False":5905,"ographic":5906,"ALL":5907,"Another":5908,"\u0120interact":5909,"\u0120minor":5910,"\u0120sensitive":5911,"\u0120ongoing":5912,"\u0120fundamental":5913,"\u0120eight":5914,"\u0120phase":5915,"\u0120Build":5916,"\u0120que":5917,"\u0120feeling":5918,"\u0120Key":5919,"\u0120Copyright":5920,"byte":5921,"ournal":5922,"\u0120integration":5923,"van":5924,"\u0120attacks":5925,"crete":5926,"\u0120library":5927,"\u0120party":5928,"\u0120dim":5929,"\u0120seems":5930,"icens":5931,"df":5932,"\u0120operating":5933,"Here":5934,"\u0120Therefore":5935,"\u0120capabilities":5936,"\u0120feedback":5937,"\u0120king":5938,"\u0120vot":5939,"\u0120happen":5940,"hemat":5941,"\u0120believed":5942,"\u012027":5943,"inline":5944,"\u0120remote":5945,"\u0120\u00e2":5946,"addr":5947,"debug":5948,"\u0120Service":5949,"\u0120reports":5950,"\u0120email":5951,"\u0120conflict":5952,"\u0120adop":5953,"ecurity":5954,"itors":5955,"raint":5956,"\u0120household":5957,"\u0120divid":5958,"anged":5959,"\u0120Learning":5960,"\u0120films":5961,"Sp":5962,"\u0120unsigned":5963,"DA":5964,"\u0120harmful":5965,"\u0120seeking":5966,"remove":5967,"element":5968,"\u0120innovative":5969,"\u0120relatively":5970,"Image":5971,"\u0120hundred":5972,"\u0120latest":5973,"txt":5974,"\u0120guidance":5975,"\u0120parameters":5976,"\u0120mist":5977,"rency":5978,"\u0120password":5979,"\u0120protocol":5980,"\u0120previously":5981,"\u0120apprec":5982,"\u0120Plan":5983,"\u0120reduces":5984,"\u00d1\u0125":5985,"\u0120ingred":5986,"TYPE":5987,"\u0120esc":5988,"\u0120television":5989,"\u0120advantage":5990,"\u0120race":5991,"\u0120emergency":5992,"TH":5993,"\u0120village":5994,"aming":5995,"FIG":5996,"\u0120priorit":5997,"97":5998,"\u0120woman":5999,"\u0120independent":6000,"\u0120steel":6001,"rence":6002,"\u0120traffic":6003,"\u0120populations":6004,"\u0120purposes":6005,"********************************":6006,"ota":6007,"omas":6008,"\u0120radio":6009,"\u0120oral":6010,"\u01202004":6011,"\u0120haz":6012,"\u0120discover":6013,"\u0120nothing":6014,"\u0120interpret":6015,"\u0120citizens":6016,"service":6017,"icians":6018,"\u0120drugs":6019,"\u0120resilience":6020,"Version":6021,"\u0120slight":6022,"\u0120switch":6023,"\u0120creative":6024,"\u0120wa":6025,"\u0120Det":6026,"\u0120Republic":6027,"Resource":6028,"\u0120configuration":6029,"\u0120participants":6030,"\u0120suggests":6031,"\u0120excellent":6032,"\u0120sac":6033,"\u0120Press":6034,"\u0120chance":6035,"AGE":6036,"\u0120customer":6037,"\u0120approximately":6038,"\u0120Now":6039,"pping":6040,"install":6041,"files":6042,"\u00d0\u00bb":6043,"EXT":6044,"eria":6045,"\u0120billion":6046,"bash":6047,"\u0120$(":6048,"\u0120asked":6049,"prototype":6050,"aud":6051,"\u0120David":6052,"den":6053,"left":6054,"\u0120oxygen":6055,"rows":6056,"lig":6057,"\u0120conducted":6058,"\u0120chart":6059,"antic":6060,"\u0120facilities":6061,"Many":6062,"II":6063,"\u0120Using":6064,"enty":6065,"\u0120affects":6066,"\u0120internet":6067,"\u0120Washington":6068,"\u0120river":6069,"\u0120stability":6070,"\u0120recorded":6071,"offset":6072,"\u0120languages":6073,"tree":6074,"\u0120antib":6075,"\u0120told":6076,"ician":6077,"\u0120static":6078,"\u010a\u0120\u0120\u0120\u0120\u0120\u0120\u0120\u0120\u0120\u0120\u0120\u0120\u0120\u0120\u0120\u0120\u0120\u0120\u0120\u0120\u0120\u0120\u0120\u0120\u0120\u0120\u0120\u0120\u0120\u0120\u0120":6079,"\u0120Then":6080,"\u0120Direct":6081,"98":6082,"\u0120artificial":6083,"\u00e5\u00a4":6084,"\u0120Tem":6085,"\u0120discovered":6086,"\u0120Id":6087,"\u0120Tur":6088,"\u0120amounts":6089,"\u010a\u0120\u0120\u0120\u0120\u0120\u0120\u0120\u0120\u0120\u0120\u0120\u0120":6090,"lam":6091,"ded":6092,"\u0120\u00ce":6093,"\u0120majority":6094,"ieties":6095,"(*":6096,"\u0120fab":6097,"\u0120Google":6098,"look":6099,"\u0120hit":6100,"\u0120satisf":6101,"orig":6102,"\u0120fol":6103,"ned":6104,"\u0120appears":6105,"\u0120authent":6106,"\u0120Engine":6107,"GET":6108,"essions":6109,"\u01202022":6110,"\u0120vast":6111,"asion":6112,"ffective":6113,"\u0120cloud":6114,"').":6115,"\u0120philos":6116,"\u0120rail":6117,"\u0120session":6118,"RC":6119,"\u0120url":6120,"ITY":6121,"\u0120gets":6122,"\u0120optimal":6123,"\u0120isol":6124,"\u0120decades":6125,"\u0120Que":6126,"\u0120callback":6127,"example":6128,"ala":6129,"etch":6130,"\u0120surgery":6131,"\u0120univers":6132,"ogen":6133,"\u00c2\u00b0":6134,"arant":6135,"\u0120Food":6136,"\u0120specifically":6137,"\u0120iron":6138,"\u0120repro":6139,"Em":6140,"\u0120Dem":6141,"exec":6142,"NG":6143,"\u0120vegetables":6144,"\u0120Once":6145,"\u010a\u0120\u0120\u0120\u0120\u0120\u0120":6146,"\u0120hearing":6147,"\u0120ethical":6148,"\u0120Group":6149,"\u0120Society":6150,"\u0120effectiveness":6151,"\u0120figure":6152,"\u0120notes":6153,"\u0120regul":6154,"\u0120dram":6155,"\u0120Di":6156,"~~":6157,"\u0120description":6158,"\u0120Time":6159,"device":6160,"\u0120craft":6161,"akers":6162,"ford":6163,"\u0120seed":6164,"project":6165,"\u0120dir":6166,"\u0120voice":6167,"inated":6168,"lication":6169,"\u00e2\u0122\u00a2":6170,"aker":6171,"\u0120Tr":6172,"amily":6173,"\u0120advoc":6174,"\u0120sexual":6175,"\u0120Court":6176,"array":6177,"itz":6178,"thlet":6179,"\u0120smooth":6180,"\u0120ST":6181,"\u0120credit":6182,"\u0120grant":6183,"ago":6184,"></":6185,"othing":6186,"More":6187,"ped":6188,"\u0120flood":6189,"ventions":6190,"\u0120Leg":6191,"\u0120responsibility":6192,"\u0120indicate":6193,"\u0120buy":6194,"\u0120voc":6195,"\u0120guidelines":6196,"\u0120phen":6197,"\u0120;;":6198,"etc":6199,"ows":6200,"\u012029":6201,"SO":6202,"omic":6203,"\u0120cris":6204,"IO":6205,"\u0120medications":6206,"\u0120soft":6207,"\u0120pal":6208,"\u0120speech":6209,"Back":6210,"eal":6211,"\u0120opened":6212,"\u0120advice":6213,"\u010d\u010a\u0109":6214,"\u0120gave":6215,"ael":6216,"\u0120Fe":6217,"roller":6218,"\u0120cra":6219,"Do":6220,"\u0120confidence":6221,"false":6222,"\u0120embra":6223,"\u0120engagement":6224,"\u0120pull":6225,"Pre":6226,"\u0120train":6227,"\u0120cutting":6228,"\u0120wire":6229,"\u0120Mount":6230,"ieving":6231,"\u0120depends":6232,"\u0120Paul":6233,"\u010a\u010a\u0109\u0109":6234,"\u0120advantages":6235,"response":6236,"\u0120maximum":6237,"\u0120seven":6238,"\u0120poly":6239,"\u0120habits":6240,"\u0120finding":6241,"\u0120James":6242,"\u0120Web":6243,"\u0120Americans":6244,"\u0120vitamin":6245,"older":6246,"\u0120preventing":6247,"\u0120pod":6248,"\u0120therm":6249,"\u0120reduction":6250,"\u0120milk":6251,"\u0120Cath":6252,"\u012080":6253,"\u0120skill":6254,"\u0120Div":6255,"{\"":6256,"\u00d9\u0128":6257,"500":6258,"\u0120vent":6259,"\u0120dynamic":6260,"\u0120tag":6261,"\u0120Life":6262,"ayer":6263,"\u0120click":6264,"\u0120elev":6265,"\u0120agricultural":6266,"clone":6267,"done":6268,"\u0120experiment":6269,"\u0120experim":6270,"\u0120Regular":6271,"\u0120Del":6272,"\u0120diagnosis":6273,"params":6274,"Us":6275,"igenous":6276,"96":6277,"Address":6278,"lements":6279,"quality":6280,"Create":6281,"\u0120municip":6282,"\u0120deaths":6283,"friendly":6284,"valu":6285,"\u0120Tex":6286,"\u0120famous":6287,"master":6288,"\u0120behaviors":6289,"sv":6290,"\u0120trends":6291,"ologist":6292,"\u0120Technology":6293,"SELECT":6294,"ressed":6295,"\u0120machines":6296,"\u0120spent":6297,"\u0120beautiful":6298,"\u0120conclusion":6299,"\u0120IF":6300,"\u0120sen":6301,"\u0120farmers":6302,"bed":6303,"\u0120Mary":6304,"\u0120SE":6305,"\u0120Gen":6306,"\u0120thick":6307,"\u0120Elect":6308,"\u0120Acad":6309,"\u0120movements":6310,"\u0120variable":6311,"ny":6312,"\u0120classroom":6313,"FT":6314,"\u0120intended":6315,"nes":6316,"\u0120referred":6317,"}}":6318,"\u0120underlying":6319,"\u0120Support":6320,"riculum":6321,"\u0120faith":6322,"\u0120epis":6323,"According":6324,"\u0120Spanish":6325,"\u0120argument":6326,"ctors":6327,"\u00c3\u00a7":6328,"\u0120procedures":6329,"GO":6330,"Ab":6331,"rowser":6332,"''":6333,"\u0109\u0109\u0109\u0109":6334,"\u0120provider":6335,"Default":6336,"\u0120goods":6337,"\u0120})":6338,"Model":6339,"\u0120Sy":6340,"\u0120~":6341,"\u0120Inf":6342,"\u0120extract":6343,"\u0120arguments":6344,"ashion":6345,"Net":6346,"\u0120fostering":6347,"author":6348,"\u0120hun":6349,"xb":6350,"aws":6351,"They":6352,"\u0120chemicals":6353,"ci":6354,"\u0120roll":6355,"weight":6356,"\u0120perm":6357,"command":6358,"Te":6359,"NU":6360,"\u012032":6361,"LI":6362,"duction":6363,"\u0120multi":6364,"\u0120college":6365,"OP":6366,"\u0120assign":6367,"\u0120Island":6368,"\u0120mel":6369,"\u0120args":6370,"\u0120designs":6371,"\u0120budget":6372,"icks":6373,"\u01202003":6374,"\u0120arm":6375,"=${":6376,"istan":6377,"\u0120worldwide":6378,"roph":6379,"\u0120drop":6380,"\u0120cultiv":6381,"\u0120query":6382,"\u0120straight":6383,"DF":6384,"\u0120William":6385,"[]":6386,"inger":6387,"\u0120route":6388,"\u0120Bi":6389,"\u0120navigate":6390,"\u0120Israel":6391,"){":6392,"instance":6393,"\u0120Ste":6394,"\u0120treated":6395,"\u0120mac":6396,"\u0120src":6397,"inner":6398,"\u0120transportation":6399,"\u0120prepared":6400,"History":6401,"rian":6402,"ampionship":6403,"Number":6404,"\u0120boolean":6405,"\u0120Year":6406,"\u0120corresp":6407,"\u0120observed":6408,"lick":6409,"\u0120exists":6410,"\u0120helped":6411,"\u0120Profess":6412,"\u0120suppl":6413,"\u0120diversity":6414,"UPDATE":6415,"\u0120thoughts":6416,"\u0120moisture":6417,"\u0120legis":6418,"\u0120debug":6419,"\u0120periods":6420,"scale":6421,"\u0120carried":6422,"\u0120trou":6423,"\u0120Mac":6424,"\u0120depth":6425,"\u0120exception":6426,"\u0120selection":6427,"\u0120procedure":6428,"\u0120cleaning":6429,"gypt":6430,"\u0120frequency":6431,"\u0120Central":6432,"erial":6433,"vas":6434,"\u0120charge":6435,"uls":6436,"\u0120bird":6437,"\u0120leadership":6438,"hedul":6439,"itory":6440,"agers":6441,"arp":6442,"\u0120THE":6443,"\u00e8\u00af":6444,"\u0120literature":6445,"\u0120algorithms":6446,"\u0120flag":6447,"\u0120addressing":6448,"\u0120threats":6449,"ainer":6450,"\u0120sand":6451,"acts":6452,"aren":6453,"\u0120stored":6454,"\u0120Energy":6455,"\u0120extreme":6456,"ria":6457,"\u0120Pract":6458,"onic":6459,"\u0120Step":6460,"\u0120fruits":6461,"\u0120Vis":6462,"\u0120vess":6463,"\u0120relax":6464,"\u0120Because":6465,"\u0120dedicated":6466,"Other":6467,"xc":6468,"\u0120glob":6469,"\u0120balanced":6470,"\u0120roots":6471,"\u0120allerg":6472,"rase":6473,"CS":6474,"\u0120fine":6475,"idate":6476,"\u0120covered":6477,"Param":6478,"\u0120contem":6479,"\u0120otherwise":6480,"\u0120exchange":6481,"\u0120mobile":6482,"\u0120George":6483,"\u0120crypt":6484,"Run":6485,"Now":6486,"\u0120ax":6487,"\u0120width":6488,"\u0120showed":6489,"romise":6490,"\u0120artists":6491,"\u0120DO":6492,"cfg":6493,"\u00d0\u00ba":6494,"\u0120Control":6495,"\u0120combined":6496,"\u0120happens":6497,"tee":6498,"istant":6499,"illa":6500,"\u0120prepare":6501,"\u0120Power":6502,"\u0120bottom":6503,"\u0120presented":6504,"\u0120Care":6505,"{{":6506,"\u0120didn":6507,"\u0120Bas":6508,"nam":6509,"uid":6510,"sembly":6511,"\u0120ple":6512,"security":6513,"\u0120blog":6514,"\u0120download":6515,"\u0120dangerous":6516,"\u0120subsequ":6517,"\u0120enabling":6518,"cies":6519,"\u0120channel":6520,"\u0120blocks":6521,"Step":6522,"\u0120Australian":6523,"sys":6524,"\u0120wealth":6525,"\u0120thousands":6526,"\u0120comment":6527,"\u0120anyone":6528,"\u0120calls":6529,"\u0120outdo":6530,"'ll":6531,"itness":6532,"\u00e6\u012a":6533,"\u0120meeting":6534,"inations":6535,"\u0120messages":6536,"\u0120package":6537,"\u0120Start":6538,"\u0120mentioned":6539,"93":6540,"]);":6541,"\u0120fasc":6542,"\u0120dra":6543,"raction":6544,"cache":6545,"\u0120fib":6546,"\u0120Sen":6547,"first":6548,"\u0120Form":6549,"IV":6550,"\u01202001":6551,"plete":6552,"\u0120wall":6553,"\u0120jobs":6554,"\u0120formation":6555,"\u00d8\u00b1":6556,"\u0120commitment":6557,"points":6558,"\u0120circum":6559,"\u0120protected":6560,"\u0120recognize":6561,"\u0120muscles":6562,"greg":6563,"grade":6564,"aughter":6565,"normal":6566,"\u0120Lou":6567,"\u0120upper":6568,"PORT":6569,"DR":6570,"\u0120ultimately":6571,"za":6572,"\u0120residents":6573,"\u0120Rich":6574,"\u0120pros":6575,"\u0120DNA":6576,"Server":6577,"usiness":6578,"\u0120architecture":6579,"ander":6580,"\u0120detection":6581,"VERSION":6582,"ora":6583,"bytes":6584,"\u0120survey":6585,"\u0120!==":6586,"oking":6587,"bind":6588,"\u0120Army":6589,"lymp":6590,"\u0120beauty":6591,"send":6592,"\u0120picture":6593,"\u0120statement":6594,"png":6595,"During":6596,"\u0120Free":6597,"\u0120extremely":6598,"\u0120restrict":6599,"ARRA":6600,"google":6601,"arter":6602,"\u0120secret":6603,"\u0120exercises":6604,"\u0120interesting":6605,"People":6606,"![":6607,"GE":6608,"\u0120containing":6609,"\u0120renewable":6610,"volution":6611,"\u0120Mem":6612,"pload":6613,"\u0120era":6614,"\u0120visible":6615,"\u0120exposed":6616,"\u0120Acc":6617,"\u0120Street":6618,"\u0120learned":6619,"ICEN":6620,"//!":6621,"94":6622,"iverse":6623,"uma":6624,"\u0120Museum":6625,"ua":6626,"\u0120Bet":6627,"\u0120define":6628,"\u0120pieces":6629,"ARCHAR":6630,"while":6631,"\u0120successfully":6632,"\u0120Mart":6633,"search":6634,"\u0120Rober":6635,"\u0120strict":6636,"\u00e7\u0136\u00a8":6637,"cers":6638,"ersonal":6639,"\u0120despite":6640,"arn":6641,"\u0120perspective":6642,"\u0120closed":6643,"\u0120info":6644,"esh":6645,"\u0120installed":6646,"\u0120Sun":6647,"\u0120Phys":6648,"\u0120topics":6649,"auth":6650,"band":6651,"Errorf":6652,"\u0120recognition":6653,"\u00e0\u00a5":6654,"\u0120ok":6655,"\u0120injuries":6656,"\u0120Medic":6657,"amil":6658,"ishes":6659,"\u0120replaced":6660,"osen":6661,"\u01201990":6662,")\"":6663,"BO":6664,"\u0120yellow":6665,"\u0120please":6666,"section":6667,"\u0120math":6668,"\u0120consumers":6669,"\u0120limitations":6670,"\u0120begins":6671,"det":6672,"\u0120Design":6673,"idity":6674,"ba":6675,"roc":6676,"\u0120border":6677,"erent":6678,"\u0120gather":6679,"255":6680,"stone":6681,"\u0120customers":6682,"CR":6683,"END":6684,"\u0120shall":6685,"Eng":6686,"ensor":6687,"\u0120Mont":6688,"]:":6689,"comfort":6690,"\u0120CH":6691,"\u00e4\u00b8\u0122":6692,"cope":6693,"\u0120substant":6694,"\u0120Texas":6695,"\u0120Egypt":6696,"\u0120reached":6697,"\u0120die":6698,"\u00e5\u013e":6699,"\u0120audience":6700,"\u0120ship":6701,"\u0120catch":6702,"\u00ec\u013f":6703,"\u0120describe":6704,"Our":6705,"Ent":6706,"\u0120missing":6707,"join":6708,"\u0120flowers":6709,"Part":6710,"roke":6711,"\u0120therap":6712,"\u00e6\u0137":6713,"well":6714,"\u0120token":6715,"orter":6716,"\u0120enhances":6717,"REG":6718,"\u0120dur":6719,"\u0120Mat":6720,"\u0120surpr":6721,"\u0120sharing":6722,"\u0120pand":6723,"\u0120thread":6724,"fmt":6725,"\u0120eggs":6726,"\u0120Children":6727,"ICENSE":6728,"\u0120presc":6729,"alysis":6730,"system":6731,"dest":6732,"\u01202002":6733,"92":6734,"Tem":6735,"isc":6736,"\u0120atmosphere":6737,"Ret":6738,"\u0120annual":6739,"\u0120battle":6740,"\u0120dro":6741,"\u0120Post":6742,"\u0120centuries":6743,"iated":6744,"\u0120leaving":6745,"\u0120metab":6746,"\u0120mainly":6747,"types":6748,"scope":6749,"\u0120brother":6750,"\u0120bright":6751,"\u0120Diff":6752,"\u0120clim":6753,"\u0120Treat":6754,"\u0120Sal":6755,"\u0120mostly":6756,">(":6757,"vity":6758,"\u0120consc":6759,"\u0120immediate":6760,"arity":6761,"\u0120random":6762,"\u0120cardi":6763,"ocket":6764,"\u0120enables":6765,"Types":6766,"\u0120interests":6767,"ustain":6768,"ugh":6769,"Block":6770,"\u0120Ins":6771,"\u0120Oper":6772,"\u0120crisis":6773,"aturally":6774,"Point":6775,"rt":6776,"\u0120retain":6777,"icious":6778,"isk":6779,"\u012070":6780,"\u0120simpl":6781,"\u0120grass":6782,"\u0120Imp":6783,"Content":6784,"LA":6785,"\u0120huge":6786,"\u0120continuous":6787,"\u0120Software":6788,"\u0120Name":6789,"\u0120diss":6790,"\u0120White":6791,"\u012090":6792,"\u0120prem":6793,"\u0120opin":6794,"estamp":6795,"Use":6796,"\u0120Government":6797,"\u0120Bro":6798,"AND":6799,"\u0120freedom":6800,"\u0120breast":6801,"\u0120cere":6802,"riage":6803,"\u0120Window":6804,"\u0120lies":6805,"================================":6806,"ye":6807,"\u0120interested":6808,"\u0120leader":6809,"address":6810,"\u0120defic":6811,"\u0120agriculture":6812,"ville":6813,"\u0120Sing":6814,"ipping":6815,"lers":6816,"\u00c4\u00b1":6817,"ulf":6818,"\u0120]];":6819,"\u0120island":6820,"Go":6821,"\u0120alle":6822,"\u0120District":6823,"berg":6824,"mob":6825,"\u0120signed":6826,"\u0120cultures":6827,"\u0120inner":6828,"\u0120handling":6829,"\u0120Sum":6830,"\u0120coff":6831,"achine":6832,"\u0120Lord":6833,"\u01202023":6834,"igital":6835,"ologists":6836,"\u0120exactly":6837,"\u0120Space":6838,"\u0120Miss":6839,"Am":6840,"aks":6841,"\u0120Jewish":6842,"\u0120Tor":6843,"bt":6844,"\u0120Every":6845,"\u0120helpful":6846,"\u0120responses":6847,"\u0120courses":6848,"\u0120diam":6849,"\u0120robust":6850,"inating":6851,"\u0120Emp":6852,"heast":6853,"\u0120conv":6854,"awn":6855,"\u0120Ber":6856,"\u0120stages":6857,"\u0120Instead":6858,"\u0120Nor":6859,"aught":6860,"\u0120Common":6861,"\u0120vibr":6862,"\u0120births":6863,"::{":6864,"\u0120violence":6865,"groups":6866,"Base":6867,"\u0120Under":6868,"pha":6869,"apers":6870,"\u0120initiatives":6871,"\u0120\u0120\u0120\u0120\u0120\u0120\u0120\u0120\u0120\u0120\u0120\u0120\u0120":6872,"\u0120precision":6873,"\u0120director":6874,"\u0120capture":6875,"vm":6876,"2015":6877,"reams":6878,"\u0120marg":6879,"\u0120extensive":6880,"BT":6881,"\u0120truth":6882,"API":6883,"yes":6884,"\u0120award":6885,"west":6886,"\u0120\"\\":6887,"ansion":6888,"\u0120Human":6889,"\u0120Keep":6890,"\u0120offered":6891,"\u0120fertil":6892,"keys":6893,"\u00e6\u013a\u00af":6894,"\u0120closely":6895,"My":6896,"\u0120letter":6897,"\u0120hyper":6898,"\u0120pu":6899,"\u0120fill":6900,"\u0120rul":6901,"Port":6902,"css":6903,"\u00db\u012e":6904,"hav":6905,"\u0120conven":6906,"\u0120Greek":6907,"\u0120Kore":6908,"\u0120Saf":6909,"common":6910,"\u0120Asia":6911,"\u0120Sol":6912,"\u0120recognized":6913,"\u0120Expl":6914,"\u0120hospital":6915,"arrow":6916,"\u0120\u00eb":6917,"\u0120stable":6918,"ascular":6919,"\u0120medication":6920,"\u0120tiny":6921,"Act":6922,"\u0120Fil":6923,"organ":6924,"\u0120Second":6925,"\u0120transactions":6926,"\u0120noted":6927,"Open":6928,"alian":6929,"\u0120meat":6930,"\u0120invent":6931,"ymbol":6932,"\u0120medium":6933,"pers":6934,"world":6935,"\u0120miles":6936,"\u0120instrument":6937,"util":6938,"hash":6939,"OUT":6940,"\u0120advancements":6941,"=\"${":6942,"\u0120Creat":6943,"\u0120thorough":6944,"\u0120appeared":6945,"\u0120grid":6946,"\u0120kill":6947,"\u0120dent":6948,"\u0120_,":6949,"\u0120extended":6950,"inent":6951,"DC":6952,"hesis":6953,"\u0120boundaries":6954,"\u0120interaction":6955,"interface":6956,"\u0120programming":6957,"\u0120Canadian":6958,"otic":6959,"\u0120Ir":6960,"\u0120Rad":6961,"\u0120zero":6962,"\u0120inject":6963,"Sign":6964,"ZE":6965,"\u0120compos":6966,"urd":6967,"ophy":6968,"\u0120fluid":6969,"endif":6970,"show":6971,"\u0120assum":6972,"creen":6973,"\u0120wait":6974,"\u0120obj":6975,"\u0120killed":6976,"xd":6977,"\u0120fort":6978,"cknow":6979,"gr":6980,"rateg":6981,"=`":6982,"\u0120creativity":6983,"\u0120lung":6984,"icensed":6985,"\u0120neuro":6986,"\u0120ocean":6987,"\u0120mechanisms":6988,"rip":6989,".$":6990,"\u0120profound":6991,"\u0120Road":6992,"package":6993,"\u0120perman":6994,"\u0120foo":6995,"ervices":6996,"\u0120funding":6997,"xe":6998,"nership":6999,"holders":7000,"\u0120improvement":7001,"\u0120aircraft":7002,"token":7003,"9999":7004,"\u0120generations":7005,"\u0120providers":7006,"\u0120controlled":7007,"real":7008,"\u0120ped":7009,"\u0120['":7010,"\u0120wildlife":7011,"sor":7012,"\u0120ANY":7013,"\u0120amb":7014,"\u0120intervention":7015,"ossible":7016,"arks":7017,"91":7018,"which":7019,"\u0120lived":7020,"\u0120reaction":7021,"ona":7022,"\u0120tit":7023,"\u0120Sl":7024,"\u0120adequ":7025,"resource":7026,"\u0120adult":7027,"\u0120implications":7028,"\u0120ce":7029,"2017":7030,"\"))":7031,"\u0120Cup":7032,"\u0120scope":7033,"\u0120Je":7034,"\u0120domain":7035,"\u0120Dec":7036,"\u0120WIT":7037,"\u0120unc":7038,"\u0120Exper":7039,"\u0120regist":7040,"han":7041,"\u0120justice":7042,"\u0120sounds":7043,"\u0120regional":7044,"\u0120exploration":7045,"\u0120clearly":7046,"\u0120interview":7047,"grad":7048,"\u0120insert":7049,"rations":7050,"\u0120edge":7051,"fulness":7052,"\u0120accel":7053,"ATA":7054,"\u0120intake":7055,"\u0120intric":7056,"RIM":7057,"\u0120documents":7058,"venue":7059,"eless":7060,"\u0120branch":7061,"\u0120Sign":7062,"align":7063,"\u0120Lake":7064,"\u0120lessons":7065,"\u0120holds":7066,"\u0120instructions":7067,"IR":7068,"\u012000":7069,"\u0120Russian":7070,"\u0120starts":7071,"\u0120victim":7072,"\u0120marked":7073,"\u0120Stand":7074,"nic":7075,"rates":7076,"\u0120join":7077,"\u0120Both":7078,"\u0120rapidly":7079,"\u0120operate":7080,"\u0120communicate":7081,"\u0120parties":7082,"\u0120exploring":7083,"\u0120Returns":7084,"iced":7085,"\u00e2\u0122\u013f,":7086,"\u0120carefully":7087,"\u0120brand":7088,"\u0120turned":7089,"\u0120managed":7090,"\u0120Error":7091,"\u0120strategic":7092,"\u0120phenomen":7093,"\u0120grand":7094,"\u0120assistance":7095,"\u0120Sam":7096,"\u0120pages":7097,"\u0120Journal":7098,"\u0120particles":7099,"\u0120Self":7100,"Cons":7101,"bour":7102,"ifest":7103,"ky":7104,"\u0120san":7105,"\u0120definition":7106,"\u0120variables":7107,"Off":7108,"\u0120settle":7109,"ventional":7110,"olf":7111,"\u0120Cult":7112,"\u0120Version":7113,"CHE":7114,"\u0120colle":7115,"\u0120desired":7116,"\u0120nuclear":7117,"\u0120vs":7118,"step":7119,"\u0120parse":7120,"\u0120struggle":7121,"\u0120relative":7122,"buffer":7123,"what":7124,"\u0120Micro":7125,"isher":7126,"iled":7127,"osa":7128,"\u0120remained":7129,"aser":7130,"SL":7131,"\u0120Bay":7132,"\u0120onto":7133,"\u0120west":7134,"numerus":7135,"numerusform":7136,"\u0120addresses":7137,"Each":7138,"\u0120Che":7139,"conomic":7140,"\u0120stands":7141,"Dec":7142,"ette":7143,"\u0120Company":7144,"\u0120decided":7145,"\u0120extends":7146,"\u0120locations":7147,"\u0120Code":7148,"\u00e5\u012c":7149,"\u0120Gold":7150,"ture":7151,"\u0120precise":7152,"\u0120estimated":7153,"\u0120raised":7154,"\u0120End":7155,"apos":7156,"\u0120Dev":7157,"\u00d9\u0126":7158,"\u0120aims":7159,"ao":7160,"ceived":7161,"\u0120pars":7162,"Load":7163,"ACE":7164,"\u0120signals":7165,"\u0120TV":7166,"river":7167,"\u0120productivity":7168,"\u0120pump":7169,"\u0120Object":7170,"soft":7171,"\u0120manner":7172,"itar":7173,"\u0120contributing":7174,"/.":7175,"Update":7176,"\u0120healing":7177,"\u0120afford":7178,"\u0120consumer":7179,"eles":7180,"float":7181,"forms":7182,"\u0120wanted":7183,"\u012031":7184,"\u0120degrees":7185,"unately":7186,"irr":7187,"\u0120assets":7188,"\u0120deli":7189,"\u0120Land":7190,"\u0120noise":7191,"ln":7192,"avy":7193,"\u0120consists":7194,"opes":7195,"yy":7196,"\u0120rural":7197,"BS":7198,"\u0120score":7199,"\u0120rely":7200,"sign":7201,"\u0120breathing":7202,")),":7203,"\u0120authority":7204,"\u0120analyze":7205,"public":7206,"\u0120Orig":7207,"\u0120fiber":7208,"\u0120Rob":7209,"country":7210,"\u0120electronic":7211,"pi":7212,"\u0120stake":7213,"\u0120familiar":7214,"\u0120owner":7215,"\u0120bridge":7216,"\u0120announced":7217,"success":7218,"\u0120tum":7219,"\u0120firm":7220,"\u0120privacy":7221,"ECT":7222,"\u0120mood":7223,"\u00c3\u00a3":7224,"Color":7225,"\u01201980":7226,"\u0120shif":7227,"\u0120minimize":7228,"\u0120correspond":7229,"\u0120cars":7230,"\u0120walls":7231,"\u0120salt":7232,"\u0120mathemat":7233,"stack":7234,"fields":7235,"\u0120prevention":7236,"\u0120vert":7237,"bert":7238,"\u0120prices":7239,"\u0120follows":7240,"\u0120phone":7241,"MAX":7242,"ndrome":7243,"Dele":7244,"orrow":7245,"\u0120roof":7246,"\u0120Congress":7247,"\u0120youth":7248,"\u0120Arab":7249,"\u0120updated":7250,"fill":7251,"\u0120tun":7252,"\u0120styles":7253,"Ke":7254,"\u0120Hen":7255,"EM":7256,"ilation":7257,"\u0120nodes":7258,"\u0120technological":7259,"\u0120naturally":7260,"equal":7261,"\u0120competition":7262,"forcement":7263,"Property":7264,"\u0120stock":7265,"ificate":7266,"\u0120integrity":7267,"\u0120Catholic":7268,"\u0120delivery":7269,"\u0120gut":7270,"\u0120unsafe":7271,"actor":7272,"\u0120aren":7273,"\u0120owners":7274,"\u0120looks":7275,"\u0120psychological":7276,"\u0120slightly":7277,"Var":7278,"ano":7279,"pop":7280,"\u0120defe":7281,"\u0120showing":7282,"\u0120corpor":7283,"\u0120Mexico":7284,"dem":7285,"\u0120Long":7286,"\u0120curriculum":7287,"\u00e8\u00ae":7288,"\u0120lock":7289,"\u0120specialized":7290,"\u0120kit":7291,"KEY":7292,"\u0120opening":7293,"\u0120aqu":7294,"\u0120mere":7295,"iration":7296,"erals":7297,"\u0120determined":7298,"\u0120cry":7299,"Length":7300,"\u0120identifying":7301,"\u0120stations":7302,"____":7303,"make":7304,"store":7305,"\u0120habitat":7306,"ads":7307,"\u0120flexibility":7308,"\u0120agreed":7309,"\u0120crops":7310,"ato":7311,"\u0120panels":7312,"\u0120runs":7313,"\u0120cooper":7314,"\u0120wet":7315,"xx":7316,"\u0120indicates":7317,"\u0120authors":7318,"\u0120Consider":7319,"\u0120liquid":7320,"asp":7321,"tage":7322,"\u0120trigg":7323,"\u0120pri":7324,"\u0120Security":7325,"cis":7326,"Component":7327,"\u0120pil":7328,"\u0120hour":7329,"ensus":7330,"Ge":7331,"\u0120coffee":7332,"\u0120guarant":7333,"\u0120Adv":7334,"\u0120Pan":7335,"\u0120readers":7336,"\u0120joined":7337,"\u0120keys":7338,"description":7339,"del":7340,"\u0120Flor":7341,"\u0120spend":7342,"\u0120minimum":7343,"\u0120police":7344,"\u0120Thus":7345,"\u0120tal":7346,"\u0120Som":7347,"\u0120motion":7348,"Ext":7349,"\u0120foss":7350,"ocks":7351,"using":7352,"efits":7353,"\u0120liver":7354,"\u0120writer":7355,"pkg":7356,"\u0120Old":7357,"exit":7358,"nap":7359,"\u0120shell":7360,"\u0120remark":7361,"tar":7362,"\u0120whom":7363,"\u0120schedule":7364,"\u0120articles":7365,"child":7366,"\u0120neut":7367,"img":7368,"\u0120implementing":7369,"First":7370,"Pod":7371,"Min":7372,"\u0120Russia":7373,"\u0120fixed":7374,"\u0120stret":7375,"LOG":7376,"\u0120expertise":7377,"\u0120flat":7378,"\u0120excessive":7379,"\u0120veter":7380,"__(":7381,"\u0120heritage":7382,"xml":7383,"\u0120efficiently":7384,"othe":7385,"\u0120drinking":7386,"\u0120sufficient":7387,"reated":7388,"\u0120governments":7389,"ango":7390,"\u0120forced":7391,"\u0120samples":7392,"Char":7393,"tty":7394,"\u0120wife":7395,"\u0120fle":7396,"\u0120driver":7397,"\u0120stone":7398,"\u0120nerv":7399,"\u0120coordin":7400,"\u0120perhaps":7401,"\u0120brief":7402,"\u0120tradition":7403,"inux":7404,"edy":7405,"\u0120abilities":7406,"\u0120kept":7407,"\u0120originally":7408,"\u0120considering":7409,"\u0120Islam":7410,"\u0120mold":7411,"idx":7412,"\u0120fest":7413,"uous":7414,"\u0120Students":7415,"iform":7416,"DS":7417,"chers":7418,"ications":7419,"xa":7420,"\u0120meant":7421,"Container":7422,"\u0120proposed":7423,"\u01201970":7424,"Page":7425,"\u0120ingredients":7426,"heme":7427,"header":7428,"\u0120views":7429,"\u0120\u0120\u0120\u0120\u0120\u0120\u0120\u0120\u0120\u0120\u0120\u0120\u0120\u0120":7430,"\u0120reb":7431,"\u0120bytes":7432,"onents":7433,"\u0120remaining":7434,"\u0120proteins":7435,"proto":7436,"Co":7437,"\u0120Commission":7438,"\u0120Kingdom":7439,"\u0120secondary":7440,"\u0120buffer":7441,"\u0120Super":7442,"\u0120Language":7443,"\u0120template":7444,"\u0120repair":7445,"ideos":7446,"\u0120Virgin":7447,"\u0120Party":7448,"\u0120git":7449,"\u0120Internet":7450,"\u0120toxic":7451,"\u0120traditions":7452,"\u0120arriv":7453,"\u0120fabric":7454,"Header":7455,"\u0120songs":7456,"|-":7457,"\u0120broader":7458,"\u0120json":7459,"\u0120fashion":7460,"\u0120capable":7461,"\u0120pregnancy":7462,"Exp":7463,"mk":7464,"\u0120harvest":7465,"\u0120Thomas":7466,"fd":7467,"\u0120manager":7468,"\u0120functional":7469,"\u0120comfortable":7470,"Handler":7471,"FS":7472,"\u0120thrive":7473,"\u0120collected":7474,"\u0120Why":7475,"peed":7476,"liament":7477,"fit":7478,"\u0120Royal":7479,"\u0120coun":7480,"\u0120hear":7481,"\u0120accounts":7482,"EOF":7483,"\u0120focusing":7484,"\u0120ty":7485,"\u0120Olymp":7486,"\u0120('\\":7487,"\u0120founded":7488,"\u0120Value":7489,"\u0120southern":7490,"\u0120finally":7491,"rolog":7492,"\u0120zone":7493,"\u0120saying":7494,"\u0120northern":7495,"EC":7496,"\u0120expensive":7497,"\u0120circumst":7498,"\u0120Alex":7499,"\u0120president":7500,"wing":7501,"Me":7502,"\u0120recip":7503,"\u0120{'":7504,"\u0120radiation":7505,"\u0120interactive":7506,"\u0120reject":7507,"Dir":7508,"\u0120dut":7509,"iability":7510,"itivity":7511,"prefix":7512,"iodiversity":7513,"\u0120Bre":7514,"\u0120AR":7515,"\u0120nit":7516,"\u0120TH":7517,"enth":7518,":-":7519,"\u0120gene":7520,"\u0120gar":7521,"\u0120Bit":7522,"\u01201999":7523,"\u0120accum":7524,"asket":7525,"actory":7526,"mic":7527,"\u0120Av":7528,"reland":7529,"car":7530,"copy":7531,"dr":7532,"\u0120license":7533,"\u0120achieved":7534,"ighter":7535,"128":7536,"Are":7537,"\u0120Pub":7538,"\u0120Two":7539,"ali":7540,"erving":7541,"sey":7542,"\u0120stack":7543,"\u0120suc":7544,"\u0120election":7545,"she":7546,"\u0120GNU":7547,"\u0120pandemic":7548,"\u0120Vict":7549,"\u0120bow":7550,"\u0120\u00d8":7551,"items":7552,"umps":7553,"OK":7554,"sum":7555,"\u0120norm":7556,"mac":7557,"\u0120occurred":7558,"\u00e7\u00bb":7559,"Once":7560,"\u0120acts":7561,"\u0120transmission":7562,"\u0120acknow":7563,"\u010a\u010a\u0120\u0120\u0120\u0120\u0120\u0120\u0120\u0120\u0120\u0120\u0120\u0120\u0120\u0120\u0120":7564,"\u0120Global":7565,"Although":7566,"\u0120bond":7567,"testing":7568,"'],":7569,"\u0120Ens":7570,"\u00e5\u00b0":7571,"Names":7572,"zil":7573,"\u0120launc":7574,"dist":7575,"\u0120Good":7576,"\u0120rub":7577,"\u0120automatically":7578,"utils":7579,"\u0120representation":7580,"po":7581,"ching":7582,"\u0120morning":7583,"\u0120discussion":7584,"\u0120personalized":7585,"\u0120empower":7586,"values":7587,")))":7588,"\u0120Home":7589,"docker":7590,"Oper":7591,"Option":7592,"\u0120Today":7593,"inf":7594,"\u0120implemented":7595,"claim":7596,"Token":7597,"\u0120nations":7598,"\u0120correctly":7599,"\u0120Jack":7600,"Det":7601,"\u0120Studies":7602,"\u0120composition":7603,"rus":7604,"handle":7605,"burg":7606,"\u0120pool":7607,"Acc":7608,"iler":7609,"($":7610,"\u0120throw":7611,"\u0120Mass":7612,"\u0120decrease":7613,"\u0120Init":7614,"\u0120delay":7615,"Gl":7616,"Method":7617,"\u0120instruction":7618,"\",\"":7619,"\u0120Histor":7620,"\u0120Book":7621,"\u0120fro":7622,"\u0120everyday":7623,"\u0120layers":7624,"LS":7625,"\u0120cats":7626,"\u0120disrupt":7627,"\u0120portion":7628,"dated":7629,"anda":7630,"Rep":7631,"Most":7632,"\u0120concrete":7633,"\u0120domestic":7634,"\u0120marine":7635,"PER":7636,"\u00c3\u00b3n":7637,"\u0120*/;":7638,"unct":7639,"gien":7640,"ARRANT":7641,"`,`":7642,"\u0120heard":7643,"RIMARY":7644,"\u0120Well":7645,"\u0120susp":7646,"\u0120Color":7647,"ura":7648,"101":7649,"fall":7650,"uality":7651,"\u0120biological":7652,"\u0120unknown":7653,"\u0120stated":7654,"php":7655,"\u0120Atl":7656,"\u0120sessions":7657,"\u0120\"/":7658,"\u0120vaccine":7659,"\u0120typical":7660,"'.":7661,"\u012035":7662,"\u00c4\u0123":7663,"\u0120WARRANT":7664,"\u0120producing":7665,"patch":7666,"\u0120developers":7667,"ita":7668,"\u0120frequent":7669,"\u00e4\u00b8\u00aa":7670,"\u0120god":7671,"\u0120append":7672,"agram":7673,"non":7674,"\u0120survival":7675,"\u0120largely":7676,"\u0120float":7677,"++)":7678,"unte":7679,"ena":7680,"\u0120finished":7681,"acific":7682,"Output":7683,"\u0120undefined":7684,"\u0120conscious":7685,"IME":7686,"\u0120lose":7687,"ocratic":7688,"icing":7689,"Before":7690,"False":7691,"\u0120([":7692,"../../":7693,"ICE":7694,"\u0120concentration":7695,"\u0120influenced":7696,"\u0120ahead":7697,"\u0120discovery":7698,"\u0120serving":7699,"indu":7700,"outs":7701,"\u0120vulnerable":7702,"gal":7703,"ector":7704,"\u0120Mad":7705,"CONFIG":7706,"\u0120operational":7707,"ellect":7708,"\u0120msg":7709,"\u0120analyt":7710,"\u0120Women":7711,"\u00d9\u012a":7712,"pg":7713,"\u0120ment":7714,"\u0120administr":7715,"height":7716,"property":7717,"\u0120limits":7718,"bas":7719,"\u0120sweet":7720,"\u0120Mer":7721,"licenses":7722,"\u0120Know":7723,"\u0120gram":7724,"\u0120Mag":7725,"hus":7726,"\u00d1\u0131":7727,"\u0120versions":7728,"\u0120focuses":7729,"\u0120Louis":7730,"\u0120felt":7731,"egu":7732,"%.":7733,"\u0120Cap":7734,"Prov":7735,"\u0120tow":7736,"Mode":7737,"NC":7738,"TEST":7739,"\u0120floor":7740,"sd":7741,"\u0120claims":7742,"\u0120NO":7743,"\u0120installation":7744,"\u0120professor":7745,"oves":7746,"\u0120tailored":7747,"assertEqual":7748,"azon":7749,"draw":7750,"2016":7751,"container":7752,"column":7753,"\u0120apps":7754,"\u0120icon":7755,"(|":7756,"\u0120Another":7757,"ryption":7758,"\u0120auto":7759,"\u0120split":7760,"\u0120foster":7761,"Ac":7762,"isters":7763,"under":7764,"\u0120subjects":7765,"\u0120Hall":7766,"\u0120sell":7767,"\u0120truly":7768,"\u0120Vol":7769,"\u0120protecting":7770,"\u0120Lim":7771,"Enc":7772,"\u0120shel":7773,"Red":7774,"ston":7775,"\u0120integrated":7776,"apes":7777,"\u0120Avoid":7778,"\u0120faced":7779,"allel":7780,"Rel":7781,"\u0120athlet":7782,"Sim":7783,"\u0120Fort":7784,"va":7785,"\u0120mort":7786,"Command":7787,"\u0120Carol":7788,"onal":7789,"\u0120Florida":7790,"inant":7791,"sts":7792,"\u0120sensors":7793,"rapper":7794,"\u0120Academy":7795,"register":7796,"...</":7797,"ested":7798,"quot":7799,"\u0120taught":7800,"\u0120nutrient":7801,"\u0120ecosystems":7802,"\u0120markets":7803,"HD":7804,"\u0120insurance":7805,"Window":7806,"\u0120kil":7807,"\u0120Zeal":7808,"adow":7809,"zone":7810,"\u0120trained":7811,"\u0120rank":7812,"\u00e5\u0143":7813,"\u0120married":7814,"\u0120tro":7815,"\u0120demands":7816,"\u0120critic":7817,"contin":7818,"\u0120combat":7819,"\u0120seconds":7820,"\u0120contemporary":7821,"ORM":7822,"iratory":7823,"SQL":7824,"mas":7825,"Box":7826,"\u0120Medical":7827,"Let":7828,"\u0120Such":7829,"\u0120Impro":7830,"oxide":7831,"\u0120abuse":7832,"\u0120Scott":7833,"operand":7834,"ulator":7835,"\u0120formal":7836,"\u0120divided":7837,"driv":7838,"Ear":7839,"\u0120Ext":7840,"\u0120render":7841,"\u0120weap":7842,"\u0120500":7843,"\u0120Process":7844,"bles":7845,"\u0120Math":7846,"\u0120Network":7847,"\u0120figures":7848,"ella":7849,"\u0120square":7850,"cluding":7851,"NOT":7852,"\u0120trigger":7853,"\u0120blockchain":7854,"\u0120toler":7855,"\u0120tank":7856,"inity":7857,"\u0120coal":7858,"\u0120discrim":7859,"\u0120Vec":7860,"\u0120imper":7861,"\u010a\u0120\u0120\u0120\u0120\u0120\u0120\u0120\u0120\u0120\u0120\u0120\u0120\u0120\u0120\u0120\u0120\u0120":7862,"\u0120Hand":7863,"\u0120mask":7864,"sudo":7865,"elled":7866,"Last":7867,"\u0120Windows":7868,"2014":7869,"stop":7870,"\u0120stem":7871,"ASS":7872,"\u0120crop":7873,"\u0120substance":7874,"\u0120careful":7875,"\u0120listen":7876,"\u0120extend":7877,"\u0120apart":7878,"\u0120Run":7879,"\u0120relief":7880,"\u0120sequence":7881,"\u0120existence":7882,"\u0120flags":7883,"'ve":7884,"\u0120trial":7885,"\u0120listed":7886,"\u0120flight":7887,"Params":7888,"delete":7889,"\u0120farming":7890,"\u0120satell":7891,"Mon":7892,"\u0120alert":7893,"\u0120Zealand":7894,"\u0120Desc":7895,"\u0120tur":7896,"\u0120da":7897,"_,":7898,"\u0120recycling":7899,"\u0120Only":7900,"\u0120witness":7901,"\u0120solve":7902,"\u0120participate":7903,"\u0120millions":7904,"\u0120reput":7905,"\u0120healthier":7906,"oded":7907,"\u0120housing":7908,"aval":7909,"\u0120batteries":7910,"Function":7911,"ione":7912,"vir":7913,"\u0120Indust":7914,"Send":7915,"uts":7916,"\u0120Robert":7917,"\u0120decline":7918,"amins":7919,"Buffer":7920,"docs":7921,"\u0120hidden":7922,"ollowing":7923,"\u0120```":7924,"olute":7925,"atile":7926,"IND":7927,"\u0120delete":7928,"\u0120discipl":7929,"dden":7930,"\u0120fre":7931,"zen":7932,"\u0120filled":7933,"\u0120register":7934,"WAR":7935,"\u0120profile":7936,"\u0120adds":7937,"\u0120authorities":7938,"asts":7939,"cm":7940,"\u0120Ter":7941,"\u0120stick":7942,"\u0120setup":7943,"arios":7944,"\u0120hydrogen":7945,"mult":7946,"Fin":7947,"\u0120alter":7948,"Mem":7949,"\u0120reactions":7950,"pool":7951,"MI":7952,"annels":7953,"\u0120mining":7954,"\u0120sunlight":7955,"\u0120funds":7956,"\u0120Best":7957,"AV":7958,"\u0120evaluate":7959,"oute":7960,"\u0120Ireland":7961,"Max":7962,"ether":7963,"\u0120requests":7964,"EW":7965,"Web":7966,"python":7967,"\u0120learners":7968,"\u0120ble":7969,"itter":7970,"Mar":7971,"STR":7972,"\u0120shop":7973,"\u0120waters":7974,"\u0120highlights":7975,"egin":7976,"split":7977,"\u0120Access":7978,"\u0120circumstances":7979,"ASA":7980,"\u0120Ut":7981,"\u0120complications":7982,"\u0120db":7983,"irmed":7984,"2000":7985,"Your":7986,"\u0120museum":7987,"close":7988,"press":7989,"stract":7990,"\u0120Jose":7991,"\u0120URL":7992,"cloud":7993,"\u0120cart":7994,"\u0120Fix":7995,"cluded":7996,"ffff":7997,"\u0120piv":7998,"anta":7999,"\u0120Middle":8000,"\u0120Wild":8001,"\u0120Big":8002,"\u0120independence":8003,"\u0120applicable":8004,"owered":8005,"models":8006,"Copy":8007,"home":8008,"itt":8009,"CB":8010,"task":8011,"\u0120purchase":8012,"URE":8013,"Dev":8014,"\u0120Play":8015,"\u0120extent":8016,"\u0120lon":8017,"\u0120flavor":8018,"\u0120Paris":8019,"\u0120cooking":8020,"\u0120documentation":8021,"\u0120News":8022,"\u0120decor":8023,"\u0120Civil":8024,"ometry":8025,"\u0120clients":8026,"wd":8027,"\u0120rough":8028,"\u0120sudden":8029,"\u0120supplement":8030,"\u0120receiving":8031,"\u0120dispos":8032,"300":8033,"\u0120params":8034,"\u0120pursu":8035,"\u0120wonder":8036,"\u0120pul":8037,"replace":8038,"oviet":8039,"\u0120swim":8040,"\u0120prison":8041,"Instance":8042,"expr":8043,"\u0120substances":8044,"\u0120evaluation":8045,"\u0120Log":8046,"\u0120drawing":8047,"\u0120behaviour":8048,"\u0120revealed":8049,"\u0120partnership":8050,"\u0120Despite":8051,"\u0120dust":8052,"\u0120Ident":8053,"\u01201998":8054,"\u0120audio":8055,"\u0120parameter":8056,"\u0120administration":8057,"nings":8058,"\u0120studied":8059,"\u0120ju":8060,"\u0120Award":8061,"\u0120positions":8062,"/*!":8063,"kes":8064,"document":8065,"\u0120Import":8066,"\u0120difficulty":8067,"\u0120listening":8068,"\u0120Francis":8069,"\u0120Comput":8070,"\u0120greatly":8071,"\u0120distingu":8072,"\u0120manip":8073,"\u0120Furthermore":8074,"\u0120snow":8075,"\u01201960":8076,"\u0120immun":8077,"\u0120tested":8078,"\u0120chick":8079,"\u0120Environmental":8080,"\u0120artist":8081,"\u010a\u0120\u0120\u0120\u0120\u0120\u0120\u0120\u0120\u0120\u0120\u0120\u0120\u0120\u0120\u0120\u0120\u0120\u0120":8082,"\u0120mechanical":8083,"\u0120./":8084,"\u0120insects":8085,"direct":8086,"\u0120structural":8087,"PH":8088,"icit":8089,"onym":8090,"\u0120scene":8091,"asy":8092,"\u0120musical":8093,"\u0120Quest":8094,"USER":8095,"\u0120beliefs":8096,"ircle":8097,"Stream":8098,"\u0120mild":8099,"\u0120button":8100,"\u0120sales":8101,"display":8102,"\u0120leaf":8103,"private":8104,"widget":8105,"\u0120computing":8106,"ih":8107,"\u0120rig":8108,"\u0120pair":8109,"\u0120Frank":8110,"angular":8111,"\u0120regulatory":8112,"ategory":8113,"\u0120shapes":8114,"\u0120theme":8115,"Case":8116,"\u0120mixed":8117,"elihood":8118,"\u0120sport":8119,"oder":8120,"LICENSE":8121,"acu":8122,"\u0120interventions":8123,"\u0120experiencing":8124,"pu":8125,"\u0120Music":8126,"\u0120Muslim":8127,"------------":8128,"\u0120poet":8129,"comput":8130,"\u0120minerals":8131,"\u0120grown":8132,"Art":8133,"\u0120accepted":8134,"pread":8135,"\u0120surfaces":8136,"\u0120Budd":8137,"\u0120org":8138,"\u0120overw":8139,"\u01202024":8140,"\u0120feeding":8141,"\u00ce\u00bf":8142,"\u0120Italian":8143,"dialog":8144,"cap":8145,"phone":8146,"\u0120Latin":8147,"ola":8148,"\u0120dialog":8149,"\u0120Scot":8150,"\u0120lighting":8151,"\u0120taste":8152,"pet":8153,"rat":8154,"\u0120unf":8155,"....":8156,"tery":8157,"\u0120mechanism":8158,"\u0120brown":8159,"\u0120Sea":8160,"\u0120chosen":8161,"\u0120walking":8162,"\u0120principle":8163,"\u0120unders":8164,"Main":8165,"\u0120gap":8166,"prov":8167,"\u0120modified":8168,"\u0120Division":8169,"osh":8170,"ingly":8171,"\u0120pig":8172,"Deb":8173,"\u0120Special":8174,"PY":8175,"\u0120Charles":8176,"MT":8177,"lets":8178,"\u0120affecting":8179,"\u0120stars":8180,"\u0120grep":8181,"\u0120expansion":8182,"That":8183,"kin":8184,"\u0120nor":8185,"\u0120panel":8186,"\u0120agreement":8187,"ostic":8188,"----------------------------------------------------------------":8189,"\u0120introduction":8190,"WORD":8191,"\u0120involving":8192,"properties":8193,"umer":8194,"\u0120Like":8195,"\u0120Peter":8196,"\u0120Information":8197,"\u0120sett":8198,"aped":8199,"ican":8200,"Script":8201,"rants":8202,"\u010d\u010a\u0120\u0120\u0120\u0120\u0120\u0120\u0120\u0120\u0120\u0120\u0120\u0120\u0120\u0120\u0120":8203,"\u0120compounds":8204,"\u0120succeed":8205,"idespread":8206,"\u0120Commit":8207,"Line":8208,"\u0120editor":8209,"\u0120Any":8210,"orous":8211,"\u0120choosing":8212,"\u0120req":8213,"igure":8214,"\u0120Cy":8215,"Invalid":8216,"\u0120Smith":8217,"rooms":8218,"\u0120compat":8219,"\u0120MA":8220,"compass":8221,"\u0120meaningful":8222,"\u0120Bill":8223,"VAL":8224,"session":8225,"\u0120launch":8226,"\u0120Camp":8227,"\u0120density":8228,"\u0120incorporating":8229,"access":8230,"\u0120advent":8231,"stood":8232,"\u0120suffering":8233,"\u0120matches":8234,"utch":8235,"px":8236,"ja":8237,"Init":8238,"\u0120explains":8239,"UNT":8240,"\u0120achieving":8241,"\u0120gained":8242,"ki":8243,"igue":8244,"\u0120cache":8245,"amps":8246,"PU":8247,"\u0120\u00e0\u00a4":8248,"\u0120reward":8249,"\u0120letters":8250,"\u0120Britain":8251,"\u00e4\u00b9":8252,"\u0120loop":8253,"\u0120resolution":8254,"orrect":8255,"\u0120actively":8256,"commit":8257,"aked":8258,"network":8259,"\u0120preparation":8260,"Sl":8261,"\u0120printing":8262,"shal":8263,"angle":8264,"EE":8265,"\u0120possess":8266,"\u0120Bank":8267,"\u0120fif":8268,"\u0120circuit":8269,"brid":8270,"\u00e6\u0139":8271,"\u0120\\\"":8272,"\u0120auton":8273,"\u0120horse":8274,"\u0120Light":8275,"aved":8276,"\u0120entirely":8277,"\u0120recommendations":8278,"\u0120Tw":8279,"\u0120grade":8280,"\u0120corner":8281,"\u0120*)":8282,"ulin":8283,"feature":8284,"\u0120convert":8285,"plicated":8286,"hemical":8287,"bool":8288,"\u0120thin":8289,"\u0120meals":8290,"\u0120cos":8291,"outer":8292,"that":8293,"\u0120complexity":8294,"\u0120accompl":8295,"\u0120enhanced":8296,"ester":8297,"\u0120Head":8298,"apache":8299,"\u00e5\u00bc":8300,"\u00d7\u0137":8301,"aph":8302,"\u0120updates":8303,"\u0120paid":8304,"require":8305,"\u0120quantum":8306,"\u0120derived":8307,"\u0120Pass":8308,"\u0120Bur":8309,"\u0120Note":8310,"\u0120breath":8311,"ernel":8312,"\u0120massive":8313,"rape":8314,"\u0120Plant":8315,"should":8316,"di":8317,"\u0120religion":8318,"\u0120Business":8319,"*)":8320,"\u0120Dise":8321,"inet":8322,"\u0120alongside":8323,"\u0120pray":8324,"256":8325,"queue":8326,"\u0120Michael":8327,"\u0120Take":8328,"ailable":8329,"\u0120drain":8330,"\u00d9\u0127":8331,"SIZE":8332,"\u0120entered":8333,"\u0120<=":8334,"oral":8335,"\u0120contributes":8336,"\u0120aer":8337,"paren":8338,"Target":8339,"\u0120Cast":8340,"\u0120Apache":8341,"vec":8342,"bing":8343,"\u00ce\u00b1":8344,"\u0120accident":8345,"\u0120closer":8346,"FC":8347,"\u0120preferences":8348,"iders":8349,"\u0120nearby":8350,"\u0120Ver":8351,"tim":8352,"\u0120partner":8353,"\u0120agencies":8354,"\u0120adequate":8355,"clear":8356,"\u0120incred":8357,"inking":8358,"\u0120tea":8359,"UI":8360,"\u0120brings":8361,"\u0120Ca":8362,"\u0120encourages":8363,"\u0120facilitate":8364,"\u00e8\u00a1":8365,"\u0120attend":8366,"\u0120represented":8367,"ERROR":8368,"\u0120employed":8369,"\u0120elif":8370,"\u0120Jud":8371,"\u0120conventional":8372,"\u0120studying":8373,"\u0120Italy":8374,"\u0120mast":8375,"Level":8376,"ILD":8377,"\u0120Ill":8378,"\u0120Event":8379,"\u0120Rights":8380,"\u0120heating":8381,"Action":8382,"tk":8383,"\u0120outdoor":8384,"Ident":8385,"\u0120electron":8386,"health":8387,"azine":8388,"\u0120facing":8389,"\u0120console":8390,"\u0120facts":8391,"\u0120manufacturers":8392,"\u0120bio":8393,"Top":8394,"\u0120strings":8395,"STAT":8396,"fail":8397,"\u0120Moreover":8398,"\u0120houses":8399,"\u0120inspect":8400,"\u0120dietary":8401,"product":8402,"linux":8403,"\u0120girls":8404,"Write":8405,"\u0120Early":8406,"OPT":8407,"Filter":8408,"\u0120Penn":8409,"\u0120targets":8410,"\u0120widespread":8411,"\u0120Pers":8412,"\u0120contamin":8413,"\u0120ip":8414,"card":8415,"\u0120mountain":8416,"\u0120damaged":8417,"\u0120unable":8418,"\u0120Community":8419,"\u0120JSON":8420,"\u01202025":8421,"alloc":8422,"\u0120participation":8423,"\u0120biodiversity":8424,"\u0120forests":8425,"\u0120Gard":8426,"Since":8427,"\u0120centers":8428,"\u0120Georg":8429,"\u0120strengthen":8430,"\u0120Brazil":8431,"\u0120wave":8432,"PRE":8433,"WS":8434,"\u0120duration":8435,"Stud":8436,"itutional":8437,"iotics":8438,"shot":8439,"\u0120sides":8440,"\u0120mand":8441,"\u0120fung":8442,"\u0120Pak":8443,"\u0120Back":8444,"\u0120Safety":8445,"\u0120vibrant":8446,"giene":8447,"\u0120adopted":8448,"\u0120weld":8449,"Change":8450,"DP":8451,"FLAG":8452,"\u0120Mult":8453,"BR":8454,"\u0120integer":8455,"={":8456,"\u0120USA":8457,"\u0120discomfort":8458,"\u0120broadcast":8459,"\u0120Victor":8460,"\u0120substantial":8461,"bits":8462,"\u0120intricate":8463,"\u0120broken":8464,"\u0120Enc":8465,"\u0120furn":8466,"\u0120Dom":8467,"\u0120irrit":8468,"\u0120manual":8469,"cpu":8470,"}',":8471,"ALTER":8472,"\u0120fav":8473,"\u0120barriers":8474,"jango":8475,"\u0120immig":8476,"\u012045":8477,"aration":8478,"\u0120tut":8479,"bur":8480,"\u0120Tom":8481,"\u0120accommod":8482,"\u0120FOR":8483,"\u0120Mel":8484,"\u0120characterized":8485,"\u0120genes":8486,"\u0120acids":8487,"mask":8488,"\u0120fu":8489,"\u00e9\u0122":8490,"ught":8491,"\u0120astron":8492,"\u0120deeply":8493,"Kind":8494,"\u00d1\u012e":8495,"zym":8496,"into":8497,"\u0120Pacific":8498,"iki":8499,"Don":8500,"\u0120minimal":8501,"\u0120daughter":8502,"\u0120explo":8503,"\"},":8504,"\u0120narrative":8505,"}.":8506,"\u0120Jer":8507,"\u0120commands":8508,"everal":8509,".__":8510,"\u0120removal":8511,"eta":8512,"\u0120covers":8513,"\u0120availability":8514,"\u0120ratio":8515,"\u0120shaping":8516,"\u0120Status":8517,"\u0120promotes":8518,"\u0120Town":8519,"\u0120sole":8520,"Tag":8521,"\u0120organized":8522,"\u0120shut":8523,"\u0120bot":8524,"HOME":8525,"\u0120confirm":8526,"\u0120guitar":8527,"ANT":8528,"\u0120Non":8529,"\u0120implied":8530,"\u0120hardware":8531,"\u0120Services":8532,"\u0120launched":8533,"\u0120competitive":8534,"Self":8535,"\u0120army":8536,"\u0120VARCHAR":8537,"\u0120visitors":8538,"ubern":8539,"\u0120Br":8540,"\u0120Wood":8541,"\u0120header":8542,"She":8543,"rating":8544,"\u0120warning":8545,"Url":8546,"\u0120lesson":8547,"\u0120intellect":8548,"Writ":8549,"\u0120thermal":8550,"\u0120datas":8551,"\u0120processed":8552,"\u0120Coll":8553,"\u0120overwhel":8554,"\u0120cooling":8555,"\u0120Lu":8556,"\u0120preval":8557,"ovascular":8558,"tool":8559,"itan":8560,"\u0120gradually":8561,"\u0120university":8562,"\u00c3\u00a3o":8563,"\u0120partners":8564,"ivalent":8565,"\u0120computers":8566,"\u0120voltage":8567,"\u0120fewer":8568,"\u00e6\u0137\u00b0":8569,"\u0120instruments":8570,"mail":8571,"\u0120'/":8572,"\u0120fossil":8573,"\u0120Championship":8574,"\u0120speaking":8575,"oga":8576,"\u0120camera":8577,"\u0120sin":8578,"parency":8579,"\u0120permanent":8580,"UID":8581,"\u0120enthus":8582,"icago":8583,"\u0120coverage":8584,"\u0120kinds":8585,"\u0120Du":8586,"\u0120modify":8587,"\u0120repeated":8588,"\u0120aest":8589,";/":8590,"\u00e5\u013e\u00a8":8591,"\u0120safegu":8592,"\u0120loved":8593,"\u0120marketing":8594,"Manager":8595,"\u0120react":8596,"\u0120controls":8597,"dc":8598,"\u0120electro":8599,"IES":8600,"wa":8601,"\u0120measured":8602,"\u0120obtained":8603,"\u0120Lab":8604,"Style":8605,"ova":8606,"ribed":8607,"\u0120happy":8608,"jo":8609,"ontal":8610,"\u0120objectives":8611,"ouble":8612,"\u0120twice":8613,"\u0120marriage":8614,"TC":8615,"\u0120FI":8616,"\u0120Grand":8617,"seq":8618,"ittle":8619,"\u0120bones":8620,"wargs":8621,"rot":8622,"\u0120narrow":8623,"\u0120SO":8624,"\u0120tight":8625,"\u0120door":8626,"Sm":8627,"\u0120Look":8628,"ipal":8629,"\u00d0\u00bc":8630,"uted":8631,"\u0120Method":8632,"\u0120Field":8633,"\u0120category":8634,"ressive":8635,"\u0120initially":8636,"////////////////":8637,"\u0120flexible":8638,"\u0120Northern":8639,"\u0120demonstrate":8640,"\u0120dict":8641,"\u0120nom":8642,"\u0120committed":8643,"rey":8644,"oving":8645,"track":8646,"\u00d0\u00b4":8647,"\u0120expectations":8648,"\u0120couple":8649,"\u0120ages":8650,"\u0120debt":8651,"\u0120Soviet":8652,"\u0120ban":8653,"\u0120Table":8654,"\u0120Nations":8655,"\u0120dynamics":8656,"\u0120explained":8657,"ga":8658,"\u0120py":8659,"\u0120Python":8660,"\u010d\u010a\u0109\u0109":8661,"otes":8662,"2012":8663,"\u0120tab":8664,"reshold":8665,"\u0120Call":8666,"\u0120autism":8667,"\u0120themes":8668,"\u0120emerging":8669,"\u0120Blue":8670,"\u0120doll":8671,"\u0120directed":8672,"Dr":8673,"\u0120turning":8674,"\u0120Empire":8675,"Current":8676,"\u0120Future":8677,"ji":8678,"apse":8679,"\u0120Writ":8680,"\u012064":8681,"\u0120regulation":8682,"\u0120promise":8683,"fish":8684,"\u0120Hy":8685,"\u0120alloc":8686,"rays":8687,"extern":8688,"\u0120scenarios":8689,"Vis":8690,"formance":8691,"\u0120Haw":8692,"\u0120entertain":8693,"\u0120Board":8694,"\u0120texture":8695,"Sw":8696,"Down":8697,"SM":8698,"102":8699,"Child":8700,"\u0120eco":8701,"eger":8702,"ASK":8703,"\u0120Est":8704,"\u0120Max":8705,"\u0120neighbor":8706,"\u0120About":8707,"\u0120pup":8708,"omach":8709,"\u0120safely":8710,"\u0120ease":8711,"admin":8712,"power":8713,"\u0120obvious":8714,"unsigned":8715,"\u010a\u0120\u0120\u0120\u0120\u0120\u0120\u0120\u0120\u0120\u0120":8716,"front":8717,"\u0120educators":8718,"\u0120western":8719,"ubernetes":8720,"\u0120vessels":8721,"\u0120suggested":8722,"Common":8723,"\u0120Force":8724,"\u0120tracking":8725,"Format":8726,"Module":8727,"settings":8728,"graph":8729,"\u0120respiratory":8730,"\u0120Tim":8731,"\u0120enabled":8732,"abil":8733,"herent":8734,"\u0120waves":8735,"\u0120explan":8736,"iary":8737,"\u0120Base":8738,"HOUT":8739,"\u0120clothing":8740,"\u0120Impact":8741,"iatric":8742,"agues":8743,"Yes":8744,"sem":8745,"\u0120targeted":8746,"\u0120tub":8747,"\u0120Fire":8748,"\u0120officials":8749,"PM":8750,"rene":8751,"Hel":8752,"\u0120tick":8753,"\u0120transc":8754,"\u0120iter":8755,"\u0120arms":8756,"\u0120functionality":8757,"\u0120moral":8758,"\u0120Order":8759,"\u0120engaged":8760,"\u0120fra":8761,"\u0120sizes":8762,"\u0120aimed":8763,"\u0120span":8764,"\u0120od":8765,"\u0120discussed":8766,"chen":8767,"abul":8768,"\u0120obser":8769,"\u0120spending":8770,"Pos":8771,"\u0120pure":8772,"flag":8773,"400":8774,"\u0120Virginia":8775,"\u0120plate":8776,"Label":8777,"VM":8778,"\u0120stronger":8779,"\u0120syndrome":8780,"\u01201997":8781,"mes":8782,"\u0120depart":8783,"vol":8784,"tcx":8785,"\u0120font":8786,"\u0120Club":8787,"\u0120tack":8788,"emon":8789,"uing":8790,"charge":8791,"\u0120greenhouse":8792,"\u0120extension":8793,"verty":8794,"control":8795,"reme":8796,"\u0120Columb":8797,"hyd":8798,"\u0120arrange":8799,"itual":8800,"\u0120writers":8801,"omit":8802,"\u0120wast":8803,"\u0120contributions":8804,"rf":8805,"driven":8806,"\u0120wis":8807,"ioxid":8808,"\u00e6\u012b":8809,"typ":8810,"osc":8811,"\u0120worksh":8812,"\u0120ns":8813,")(":8814,"\u0120pit":8815,"\u0120optimize":8816,"ISTS":8817,"\u0120nur":8818,"\u0120ancest":8819,"inate":8820,"chron":8821,"ployment":8822,"\u0120division":8823,"\u0120constantly":8824,"Work":8825,"center":8826,"\u00ed\u0137":8827,"PUT":8828,"\u0120windows":8829,"\u0120childhood":8830,"\u0120painting":8831,"\u0120literacy":8832,"\u0120poverty":8833,"Ut":8834,"\u00d7\u013b":8835,"IONS":8836,"\u0120discussions":8837,"\u0120vitamins":8838,"dim":8839,"\u0120pharm":8840,"Access":8841,"\u0120interf":8842,"\u0120addiction":8843,"\u0120presents":8844,"1000":8845,"\u00d0\u00b2":8846,"\u0120Foot":8847,"\u0120abund":8848,"\u0120meal":8849,"\u0120younger":8850,"\u0120PRIMARY":8851,"\u0120np":8852,"miss":8853,"kind":8854,"\u0120Cost":8855,"\u0120sod":8856,"\u0120Wil":8857,"\u0120employment":8858,"?\u00e2\u0122\u013f":8859,"\u0120legacy":8860,"\u0120hash":8861,"olester":8862,"\u0120arr":8863,"\u0120protective":8864,"Prot":8865,"\u0120produces":8866,"\u0120improvements":8867,"\u0120shot":8868,"\u0120transformation":8869,"\u0120sections":8870,"\u0120fascinating":8871,"\u0120neck":8872,"\u0120Henry":8873,"El":8874,"\u0120tells":8875,"ribution":8876,"Show":8877,"creat":8878,"\u0120remarkable":8879,"racy":8880,"ONE":8881,"\u0120300":8882,"\u0120defense":8883,"\u0120seam":8884,"\u0120advert":8885,"oids":8886,"\u0120facility":8887,"\u0120oblig":8888,"\u0120stakeholders":8889,"\u0120drivers":8890,"\u0120Spain":8891,"Men":8892,"\u0120constraint":8893,"\u0120fer":8894,"ROP":8895,"Using":8896,"\u0120surve":8897,"\u0120cluster":8898,"\u0120chief":8899,"rane":8900,"dec":8901,"isp":8902,"acks":8903,"amination":8904,"\u0120temporary":8905,"drop":8906,"\u0120Cur":8907,"Next":8908,"scription":8909,"\u0120Records":8910,"account":8911,"\u0120Mill":8912,"\u0120unless":8913,"lishing":8914,"\u0120Professor":8915,"\u0120nerve":8916,"\u0120restore":8917,"\u0120turns":8918,"ented":8919,"\u0120essay":8920,"ourse":8921,"such":8922,"\u0120af":8923,"ROOT":8924,"\u0120representing":8925,"ogether":8926,"\u0120Valley":8927,"\u0120measurement":8928,"Med":8929,"\u0120soldiers":8930,"\u0120IT":8931,"\u0120Systems":8932,"\u0120flo":8933,"decl":8934,"\u0120crate":8935,"\u0120Library":8936,"\u01201996":8937,"igan":8938,"\u0120engineers":8939,"fast":8940,"\u0120Star":8941,"\u0120guard":8942,"\u0120sick":8943,"osph":8944,"cert":8945,"\u0120heavily":8946,"\u0120websites":8947,"\u0120EU":8948,"\u0120improves":8949,"Const":8950,"ranches":8951,"\u0120tmp":8952,"\u0120pivotal":8953,"\u0120Node":8954,"aping":8955,"LETE":8956,"bound":8957,"onia":8958,"\u0120uncertain":8959,"fortunately":8960,"\u0120horiz":8961,"\u0120reader":8962,"Fe":8963,"\u0120agent":8964,"\u0120overcome":8965,"edge":8966,"\u0120Bal":8967,"click":8968,"UE":8969,"\u0120Change":8970,"\u0120recover":8971,"ruption":8972,"olesterol":8973,"\u0120summary":8974,"\u0120sectors":8975,"\u0120liv":8976,"\u0120payment":8977,"\u0120mitigate":8978,"\u0120consume":8979,"ipher":8980,"\u0120Line":8981,"\u0120tried":8982,"\u0120influences":8983,"gz":8984,"\u0120regardless":8985,"ride":8986,"ropical":8987,"\u0120Sil":8988,"\u0120matters":8989,"\u0120elected":8990,"\u010a\u0120\u010a":8991,"\u0120Point":8992,"\u0120Southern":8993,"\u0120virt":8994,"\u0120obst":8995,"\u0120prominent":8996,"riptor":8997,"Delete":8998,"role":8999,"\u0120notable":9000,"\u0120ended":9001,"annot":9002,"\u0120Rail":9003,"\u0120layout":9004,"\u0120ends":9005,"har":9006,"ained":9007,"oT":9008,"rapeut":9009,"slice":9010,"ushing":9011,"Mat":9012,"\u0120supplies":9013,"\u0120trauma":9014,"anger":9015,"after":9016,"STRA":9017,"\u0120decide":9018,"\u0120rising":9019,"\u0120savings":9020,"\u0120videos":9021,"\u010a\u0109\u0120\u0120\u0120\u0120\u0120":9022,"\u0120Medicine":9023,"\u0120Top":9024,"\u0120''":9025,"mented":9026,"\u0120usize":9027,"\u0120reporting":9028,"\u0120eld":9029,"\u0120Natural":9030,"appe":9031,"pod":9032,"\u0120requiring":9033,"\u0120inhab":9034,"\u0120intense":9035,"\u0120varying":9036,"\u0120negot":9037,"\u0120compare":9038,"\u0120concerned":9039,"\u0120colour":9040,"\u0120cul":9041,"\u0120Mo":9042,"kins":9043,"\u0120Ma":9044,"\u0120accurately":9045,"AF":9046,"\u0120cash":9047,"release":9048,"\u0120universe":9049,"PAR":9050,"\u0120association":9051,"\u0120happened":9052,"\u0120Var":9053,"\u0120calcium":9054,"UTO":9055,"\u0120Digital":9056,"\u0120conflicts":9057,"\u0120reliability":9058,"\u0120Eth":9059,"Lear":9060,"\u0120Sym":9061,"\u0120proport":9062,"\u0120encompass":9063,"Ne":9064,"\u0120talking":9065,"Ob":9066,"eek":9067,"ACT":9068,"\u0120Minister":9069,"ading":9070,"orph":9071,"\u0120inclusive":9072,"\u0120senior":9073,"\u0120Role":9074,"oven":9075,"izz":9076,"\u0120seeing":9077,"\u0120Bible":9078,"Width":9079,"\u0120conversation":9080,"\u0120Oh":9081,"\u0120greatest":9082,"\u0120Sustain":9083,"\u0120hundreds":9084,"\u0120territory":9085,"\u0120ownership":9086,"\u0120resolve":9087,"\u0120Before":9088,"\u0120priority":9089,"\u0120Does":9090,"Range":9091,"comment":9092,"support":9093,"\u0120nu":9094,"\u0120removing":9095,"\u0120honor":9096,"layout":9097,"\u0120desire":9098,"\u0120Nature":9099,"\u0120volunte":9100,"\u0120Mr":9101,"\u0120attributes":9102,"DER":9103,"\u0120Irish":9104,"\u00d1\u012d":9105,"Note":9106,"\u0120trace":9107,"\u0120convey":9108,"\u0120Richard":9109,"\u0120possibly":9110,"ady":9111,"\u0120Lead":9112,"aria":9113,"\u0120intern":9114,"\u0120centre":9115,"\u010a\u0120\u0120\u0120\u0120\u0120\u0120\u0120\u0120\u0120\u0120\u0120\u0120\u0120\u0120":9116,"\u0120describes":9117,"Meta":9118,"PD":9119,"\u0120escape":9120,"\u0120holid":9121,"\u0120possibility":9122,"Host":9123,"\u0120incorporate":9124,"\u0120Jews":9125,"irds":9126,"high":9127,"\u0120newsp":9128,"sort":9129,"\u0120standing":9130,"\u0120butter":9131,"lat":9132,"\u0120sky":9133,"\u0120sys":9134,"\u0120rice":9135,"ibraries":9136,"\u0120stores":9137,"Dom":9138,"\u0120doctors":9139,"\u0120lights":9140,"\u00e5\u00ba":9141,"\u0120biggest":9142,"Despite":9143,"JECT":9144,"\u0120Pet":9145,"\u0120Incre":9146,"\u0120insight":9147,"\u0120myth":9148,"\u0120Mot":9149,"\u0120User":9150,"\u0120Guide":9151,"\u0120\u00d0\u00bf":9152,"\u0120Forest":9153,"itative":9154,"Print":9155,"itamin":9156,"utf":9157,"\u0120km":9158,"\u0120permissions":9159,"\u0120dealing":9160,"\u0120workplace":9161,"sim":9162,"\u0120inches":9163,"\u0120impossible":9164,"email":9165,"\u0120Swed":9166,"CODE":9167,"\u0120kidney":9168,"\u0120Result":9169,"\u0120Office":9170,"gex":9171,">;":9172,"called":9173,"\u0120Hill":9174,"Direct":9175,"BASE":9176,"km":9177,"\u0120survive":9178,"\u0120Tre":9179,"\u0120scan":9180,"havior":9181,"\u0120reson":9182,"\u0120thereby":9183,"\u0120Den":9184,"\u010a\u010a\u010a":9185,"\u0120categories":9186,"\u0120reserv":9187,"asketball":9188,"roat":9189,"\u0120hero":9190,"\u0120EXISTS":9191,"Volume":9192,"\u0120exciting":9193,"adding":9194,"pay":9195,"exports":9196,"\u0120nutritional":9197,"alleng":9198,"\u0120latter":9199,"Conf":9200,"\u0120symbols":9201,"\u0120Author":9202,"\u0120Pop":9203,"\u0120Invest":9204,"\u0120answers":9205,"\u0120Connect":9206,"\u0120understood":9207,"\u0120peer":9208,"\u0120perspectives":9209,"\u0120Po":9210,"\u0120nine":9211,"plex":9212,"ker":9213,"\u0120Chicago":9214,"\u0120evolved":9215,"\u0120gall":9216,"AY":9217,"night":9218,"cb":9219,"language":9220,"\u0120stomach":9221,"\u0120attribute":9222,"\u0120considerations":9223,"sync":9224,"ega":9225,"erge":9226,"Additionally":9227,"\u0120bath":9228,"sen":9229,"\u00e5\u00af":9230,"\u0120cycl":9231,"\u0120Model":9232,"\u0120soph":9233,"\u0120dance":9234,"Requ":9235,"\u0120trib":9236,"\u0120evolving":9237,"button":9238,"\u0120NASA":9239,"\u0120env":9240,"\u0120Clean":9241,"\u0120Men":9242,"temp":9243,"keep":9244,"\u0120holding":9245,"\u0120schedul":9246,"\u0120passing":9247,"sql":9248,"\u0120Ann":9249,"\u0120street":9250,"\u0120ourselves":9251,"\u0120manifest":9252,"ceptions":9253,"\u01201995":9254,"oster":9255,"rovers":9256,"\u0120Works":9257,"connected":9258,"\u0120Squ":9259,"\u0120experiments":9260,"\u0120wants":9261,"\u0120Strateg":9262,"lan":9263,"\u0120cards":9264,"oir":9265,"\u0120Rock":9266,"\u0120bear":9267,"\u0120Down":9268,"iana":9269,"ws":9270,"\u0120Low":9271,"\u0120Times":9272,"Bar":9273,"\u0120shoot":9274,"\u0120Administ":9275,"thread":9276,"\u0120Engineering":9277,"\u0120Federal":9278,"\u0120preserve":9279,"\u0120checks":9280,"\u0120digestive":9281,"\u0120Uk":9282,"oned":9283,"ocial":9284,"osion":9285,"ema":9286,"\u0120Young":9287,"Car":9288,"\u0120difficulties":9289,"\u0120Psych":9290,"\u0120peak":9291,"\u0120planting":9292,"\u0120emit":9293,"\u0120Review":9294,"\u0120criteria":9295,"\u0120packaging":9296,"\u0120rhyth":9297,"\u0120copyright":9298,"\u0120infected":9299,"\u00d0\u00b0\u00d0\u00bd":9300,"\u0120arts":9301,"\u0120equipped":9302,"atever":9303,"\u0120Eastern":9304,"\u01201000":9305,"MB":9306,"\u0120retrie":9307,"\u0120reflects":9308,"\u0120Brown":9309,"\u0120teen":9310,"\u0120persons":9311,"itical":9312,"\u0120adoption":9313,"\u0120suffer":9314,"\u0120collective":9315,"\u0120invalid":9316,"\u0120friendly":9317,"achment":9318,"othes":9319,"ository":9320,"\u0120ecological":9321,"\u0120meters":9322,"\u0120composed":9323,"\u0120flav":9324,"\u0120attached":9325,"\u0120cmd":9326,"riate":9327,"\u0120compr":9328,"esity":9329,"IGN":9330,"RT":9331,"sed":9332,"Pat":9333,"\u0120slowly":9334,"uilt":9335,"\u0120drag":9336,"cuss":9337,"ogs":9338,"hy":9339,"\u0120prioritize":9340,"Listener":9341,"\u0120ignore":9342,"\u0120finance":9343,"unit":9344,"\u0120popularity":9345,"\u0120worry":9346,"\u0120expressed":9347,"\u0120bind":9348,"\u0120subsequent":9349,"STRAINT":9350,"\u0120fract":9351,"\u0120maps":9352,"\u0120department":9353,"\u0120Modern":9354,"FIX":9355,"\u0120Native":9356,"UD":9357,"\u0120crime":9358,"\u0120variations":9359,"\u0120episode":9360,"\u0120Scient":9361,"\u00e5\u012f":9362,"\u0120Text":9363,"\u0120inspired":9364,"ietal":9365,"ampl":9366,"\u0120Ev":9367,"uce":9368,"JSON":9369,"\u00d8\u00af":9370,"\u0120agents":9371,"person":9372,"airy":9373,"ayout":9374,"\u0120[],":9375,"abulary":9376,"efficient":9377,"\u0120displ":9378,"2013":9379,"clean":9380,"\u0120certainly":9381,"\u00c3\u00a8":9382,"save":9383,"bra":9384,"\u0120advis":9385,"password":9386,"\u0120molecules":9387,"\u0120WITHOUT":9388,"zed":9389,"\u0120fatigue":9390,"\u0120Report":9391,"\u0120photos":9392,"\u0120relation":9393,"cut":9394,"\u0120scal":9395,"\u0120Asian":9396,"\u0120hygiene":9397,"Attribute":9398,"ells":9399,"Link":9400,"\u00e4\u00b8\u0143":9401,"\u0120applying":9402,"\u0120robot":9403,"SR":9404,"\u00e5\u013d":9405,"\u0120artistic":9406,"\u0120finish":9407,">%":9408,"\u00e6\u013e\u012b":9409,"\u0120comparison":9410,"\u0120occasion":9411,"Msg":9412,"\u0120appointed":9413,"\u0120SD":9414,"\u0120ring":9415,"\u0120inher":9416,"\u0120angle":9417,"\u0120indoor":9418,"\u0120performing":9419,"\u0120driven":9420,"\u0120unus":9421,"\u0120footprint":9422,"\u00cf\u0126":9423,"\u0120Pot":9424,"\u0120percentage":9425,"\u0120cardiovascular":9426,"\u0120draft":9427,"\u0120storm":9428,"\u0120disput":9429,"atre":9430,"isting":9431,"\u0120Child":9432,"\u0120equivalent":9433,"yroid":9434,"ysql":9435,"Control":9436,"\u0120functioning":9437,"none":9438,"\u0120carb":9439,"izers":9440,"\u0120issued":9441,"\u0120enum":9442,"Ben":9443,"pred":9444,"DEX":9445,"\u0120appeal":9446,"throp":9447,"enter":9448,"\u0120fly":9449,"\u0120proxy":9450,"\u0120reaching":9451,"\u0120pun":9452,"ett":9453,"\u0120treating":9454,"omitempty":9455,"\u0120paths":9456,"\u0120intent":9457,"Network":9458,"\u0120Kar":9459,"\u0120powers":9460,"\u0120chapter":9461,"\u0120PRO":9462,"\u0120translation":9463,"Debug":9464,"\u0120Training":9465,">)":9466,"\u0120featured":9467,"job":9468,"\u0120depos":9469,"\u0120constructed":9470,"ishop":9471,"\u0120Cross":9472,"\u0120BY":9473,"\u0120Joseph":9474,"\u0120bringing":9475,"CF":9476,"\u0120wish":9477,"irus":9478,"\u0120remind":9479,"\u0120compost":9480,"EP":9481,"\u0120knowing":9482,"\u0120thanks":9483,"\u0120Revolution":9484,"\u0120Similar":9485,"\u0120explicit":9486,"\u0120apparent":9487,"\u0120Equ":9488,"\u00e2\u0122\u013b.":9489,"\u0120strain":9490,"develop":9491,"\u0120structured":9492,"\u0120crim":9493,"ributed":9494,"Dialog":9495,"\u0120encounter":9496,"azing":9497,"ori":9498,"specific":9499,"\u0120calling":9500,"\u0120pra":9501,"fire":9502,"\u01201994":9503,"fol":9504,"arding":9505,"\u0120Remember":9506,"\u0120api":9507,"\u0120Az":9508,"\u0120rect":9509,"\u0120statistics":9510,"\u0120tissues":9511,"::<":9512,"eting":9513,"iture":9514,"\u0120ritual":9515,"Column":9516,"\u0120encouraging":9517,"\u0120sending":9518,"ASH":9519,"\u0120gal":9520,"pa":9521,"\u0120HTML":9522,"\u0120trials":9523,"omatic":9524,"ritis":9525,"'))":9526,"\u0120Committee":9527,"MODE":9528,"\u0120Rh":9529,"\u0120measurements":9530,"\u0120Building":9531,"CES":9532,"\u0120bread":9533,"athe":9534,"\u01201950":9535,"\u0120tall":9536,"\u0120ven":9537,"\u0120Climate":9538,"ulates":9539,"\u0120willing":9540,"\u0120constit":9541,"\u0120consideration":9542,"\u0120ethnic":9543,"\u0120Carolina":9544,"BUG":9545,"ati":9546,"\u0120pron":9547,"rons":9548,"\u0120Install":9549,"\u0120Default":9550,"\u0120instant":9551,"\u0120emerged":9552,"ragment":9553,"ultane":9554,"Living":9555,"\u0120rid":9556,"\u0120joy":9557,"jar":9558,"\u0120sensitivity":9559,"erior":9560,"\u0120favorite":9561,"\u0120fourth":9562,"\u0120Centre":9563,"\u00c5\u00a1":9564,"\u0120antioxid":9565,"\u0120io":9566,"\u0120resulted":9567,"\u0120avoiding":9568,"endar":9569,"\u0120subs":9570,"\u0120calm":9571,"issues":9572,"\u0120supplements":9573,"una":9574,"\u0120politics":9575,"nce":9576,"custom":9577,"\u0120stroke":9578,".*":9579,"oston":9580,"\u0120tap":9581,"\u00d8\u00aa":9582,"\u0120destination":9583,"\u0120ships":9584,"opts":9585,"\u010a\u0120\u0120\u0120\u0120\u0120\u0120\u0120\u0120\u0120\u0120\u0120\u0120\u0120\u0120\u0120\u0120\u0120\u0120\u0120\u0120\u0120\u0120\u0120\u0120\u0120\u0120\u0120\u0120\u0120\u0120\u0120\u0120\u0120\u0120\u0120":9586,"\u0120ille":9587,"bad":9588,"vi":9589,"ito":9590,"\u0120Card":9591,"\u0120plot":9592,"\u0120intellectual":9593,"itals":9594,"\u0120hus":9595,"Frame":9596,"\u0120historic":9597,"\u00eb\u012d":9598,"ishment":9599,"\u0120cholesterol":9600,"\u0120assigned":9601,"\u0120chances":9602,"\u0120Ask":9603,"\u0120decade":9604,"uan":9605,"aml":9606,"\u0120managers":9607,"ASE":9608,"\u0120protocols":9609,"\u0120dates":9610,"\u0120pin":9611,"construct":9612,"\u0120tact":9613,"\u0120worse":9614,"\u00e5\u012e":9615,"\u0120habitats":9616,"\u0120Mah":9617,"\u0120enzym":9618,"zer":9619,"found":9620,"amine":9621,"\u0120hazard":9622,"\u0120cas":9623,"Iter":9624,"aka":9625,"render":9626,"\u0120],":9627,"\u0120losses":9628,"\u0120Path":9629,"\u0120suspect":9630,"\u0120embed":9631,"etics":9632,"\u0120oppos":9633,"\u0120metabol":9634,"\u00e2\u0136":9635,"Ver":9636,"DATA":9637,"RIG":9638,"\u0120keeps":9639,"\u0120Ob":9640,"\u0120binary":9641,"defer":9642,"\u0120replacement":9643,"neg":9644,"\u0120wel":9645,"stable":9646,"\u0120union":9647,"\u0120captured":9648,"\u0120labels":9649,"\u0120Function":9650,"ushed":9651,"\u0120banks":9652,"\u0120scholar":9653,"verning":9654,"\u0120jump":9655,"\u0120forget":9656,"\u0120elem":9657,"\u0120Cat":9658,"ocracy":9659,"\u0120cryst":9660,"wan":9661,"\u0120Media":9662,"\u0120recording":9663,"\u0120codes":9664,"kt":9665,"HTML":9666,"\u0120\"-":9667,"omous":9668,"\u0120newly":9669,"\u0120tech":9670,"\u0120branches":9671,"\u0120magnetic":9672,"\u0120permission":9673,"\u01201992":9674,"\u0120shed":9675,"\u0120Rest":9676,"\u0120gluc":9677,"\u0120destroyed":9678,"\u0120containers":9679,"\u0120expanded":9680,"\u0120breed":9681,"\u0120Rome":9682,"\u0120seamless":9683,"\u0120refuge":9684,"\u0120sight":9685,"usc":9686,"ceive":9687,"\u0120ceremon":9688,"haust":9689,"astics":9690,"\u0120eliminate":9691,"\u0120dys":9692,"(-":9693,")?":9694,"\u0120normally":9695,"rapeutic":9696,"\u0120Labor":9697,"Store":9698,"report":9699,"\u0120agency":9700,"utrition":9701,"\u0120proactive":9702,"region":9703,"rames":9704,"\"\"\"":9705,"help":9706,"oret":9707,"\u0120sensor":9708,"\u0120TODO":9709,"\u0120objective":9710,"\u0120disturb":9711,"\u0120personnel":9712,"boot":9713,"\u0120legs":9714,"\u0120vec":9715,"\u0120bits":9716,"\u0120mock":9717,"\u0120Unlike":9718,"\u0120channels":9719,"lang":9720,"\u0120flour":9721,"\u0120societal":9722,"\u0120opinion":9723,"\u0120Tour":9724,"\u0120Family":9725,"\u0120instances":9726,"anner":9727,"\u0120Bab":9728,"Mult":9729,"entials":9730,"\u0120orient":9731,"Pass":9732,"alog":9733,"\u0120commission":9734,"Creat":9735,"\u0120pretty":9736,"\u0120owned":9737,"named":9738,"Pref":9739,"filename":9740,"meta":9741,"Exec":9742,"iology":9743,"vania":9744,"ocur":9745,"\u0120..":9746,"oured":9747,"zip":9748,"\u0120vote":9749,"\u0120laser":9750,"\u0120copper":9751,"\u0120possibilities":9752,"\u0120fighting":9753,"<<":9754,"\u0120algorithm":9755,"how":9756,"\u0120gear":9757,"inery":9758,"\u00e4\u00b8\u012f":9759,"\u0120mos":9760,"\u0120Director":9761,"\u0120Local":9762,"ulpt":9763,"lik":9764,"\u0120coach":9765,"\u0120demonstrated":9766,"tw":9767,"\u0120examine":9768,"Gu":9769,"\u0120texts":9770,"\u0120pests":9771,"\u0120reserved":9772,"\u0120profit":9773,"yal":9774,"menu":9775,"\u0120Without":9776,"enable":9777,"\u0120whereas":9778,"ILITY":9779,"\u0120statements":9780,"\u0120BC":9781,"\u0120Last":9782,"\u00e9\u0129":9783,"mal":9784,"GL":9785,"stat":9786,"\u0120planned":9787,"words":9788,"ivered":9789,"pathy":9790,"401":9791,"\u00e4\u00bb\u00a5":9792,"System":9793,"\u0120tables":9794,"\u0120Integ":9795,"\u0120Pakistan":9796,"\u0120silver":9797,"itudes":9798,"eft":9799,"erman":9800,"\u0120breaks":9801,"\u0120hormone":9802,"wait":9803,"ugins":9804,"\u0120Spring":9805,"\u0120sharp":9806,"\u0120expenses":9807,"\u0120determining":9808,"\u0120looked":9809,"\":\"":9810,"anes":9811,"diff":9812,"mount":9813,"site":9814,"Cal":9815,"\u0120150":9816,"\u0120transparency":9817,"raine":9818,"asm":9819,"uri":9820,"BUILD":9821,"\u0120references":9822,"icide":9823,"\u0120Java":9824,"\u0120attempts":9825,"ograp":9826,"\u0120Please":9827,"ibl":9828,"\u0120Ensure":9829,"\u0120sought":9830,"\u0120browser":9831,"\u0120Gal":9832,"\u0120Gree":9833,"\u0120rm":9834,"(\"%":9835,"\u0120hop":9836,"\u0120governing":9837,"Cache":9838,"tml":9839,"azz":9840,"ricts":9841,"Hash":9842,"\u0120Block":9843,"idates":9844,"\u0120phenomenon":9845,"\u0120varieties":9846,"\u0120Right":9847,"\u00e0\u00a6":9848,"\u0120defin":9849,"\u0120prefix":9850,"\u0120Los":9851,"some":9852,"\u0120nan":9853,"\u0120sock":9854,"Button":9855,"ulty":9856,"\u0120seasons":9857,"WN":9858,"\u0120ran":9859,"\u0120debate":9860,"\u0120Sup":9861,"Every":9862,"\u0120Date":9863,"even":9864,"\u0120Find":9865,"\u012036":9866,"\u0120inhib":9867,"\u0120evolve":9868,"\u00d7\u0137\u00d7":9869,"\u0120Real":9870,"\u0120shaped":9871,"\u0120Viet":9872,"\u00c3\u00b1":9873,"\u0120Martin":9874,"\u0120lasting":9875,"\u00d0\u00bf":9876,"\u0120breeding":9877,"ependent":9878,"\")]":9879,"\u0120grew":9880,"\u0120nest":9881,"\u0120fellow":9882,"utive":9883,"Body":9884,"\u00e6\u013f":9885,"\u00e6\u0142":9886,"\u0120gum":9887,"\u0120CHAR":9888,"uten":9889,"\u0120laboratory":9890,"istical":9891,"through":9892,"ben":9893,"\u0120unexpected":9894,"ctic":9895,"ami":9896,"\u0120smoking":9897,"ockey":9898,"\u0120crow":9899,"syl":9900,"\u0120passion":9901,"oices":9902,"\u0120Ess":9903,"inction":9904,"\u0120intensity":9905,"olars":9906,"\u0120Trust":9907,"earchers":9908,"\u0120Scotland":9909,"High":9910,"\u0120traits":9911,"oa":9912,"switch":9913,"\u0120discrimination":9914,"deb":9915,"\u0120moves":9916,"800":9917,"icted":9918,"\u0120Secret":9919,"\u0120conversion":9920,"\u00ce\u00b9":9921,"plant":9922,"metadata":9923,"\u0120imaging":9924,"\u0120temple":9925,"\u0120clarity":9926,"ounder":9927,"\u0120albums":9928,"\u0120maintained":9929,"rine":9930,"\u0120rivers":9931,"\u0120Lib":9932,"\u0120FO":9933,"\u00d0\u00b5\u00d0\u00bd":9934,"\u0120parallel":9935,"\u0120om":9936,"\u0120examination":9937,"channel":9938,"\u0120weakness":9939,"Ins":9940,"\u0120arrest":9941,"Failed":9942,"\u0120Saint":9943,"\u0120serial":9944,"\u0120hack":9945,"\u0120observe":9946,"\u00ef\u00bc\u013c":9947,"\u0120surge":9948,"Controller":9949,"\u0120Show":9950,"\u0120),":9951,"ela":9952,"\u0120spectrum":9953,"\u0120roads":9954,"\u0120coding":9955,"\u0120falls":9956,"aired":9957,"\u0120belie":9958,"Post":9959,"\u0120identification":9960,"\u0120reinfor":9961,"\u0120contributed":9962,"\u0120prove":9963,"\u0120outer":9964,"emia":9965,"\u0120outcome":9966,"\u0120gent":9967,"\u0120stead":9968,"\u0120compens":9969,"children":9970,"move":9971,"uh":9972,"\u0120alternatives":9973,"\u0120regulate":9974,"\u0120paint":9975,"LC":9976,"\u0120proven":9977,"War":9978,"\u0120reveal":9979,"Root":9980,"\u0120contents":9981,"\u0120Ocean":9982,"\u00e1\u00bb":9983,"\u0120routes":9984,"gressive":9985,"solving":9986,"\u0120introduce":9987,"\u0120Offic":9988,"backs":9989,"\u0120verify":9990,"Valid":9991,"\u0120selecting":9992,"neys":9993,"\u0120philosophy":9994,"iano":9995,"\u0120assessments":9996,"hma":9997,"\u0120criminal":9998,"ktop":9999,"\u00e5\u0129":10000,"\u0120Ast":10001,"\u0120breaking":10002,"prop":10003,"\u0120coastal":10004,"\u0120nervous":10005,"\u0120Age":10006,"\u0120fitness":10007,"\u0120Disease":10008,"\u0120''),":10009,"\u0120peers":10010,"\u0120Bul":10011,"\u0120Have":10012,"\u0120defect":10013,"\u0120moon":10014,"\u0120Action":10015,"Exception":10016,"\u012075":10017,"\u0120arise":10018,"\u0120sacr":10019,"ude":10020,"\u0120&'":10021,"HS":10022,"ctu":10023,"\u0120smoke":10024,"\u0120compass":10025,"\u0120mamm":10026,"\u0120eastern":10027,"\u0120pets":10028,"\u0120tor":10029,"\u0120comments":10030,"\u0120Grow":10031,"\u0120turb":10032,"\u0120/>":10033,"\u0120ampl":10034,"RR":10035,"\u0120spin":10036,"fa":10037,"DIT":10038,"\u0120Protection":10039,"Moreover":10040,"\u0120stre":10041,"Early":10042,"domain":10043,"Health":10044,"\u0120troops":10045,"Storage":10046,"\u0120contained":10047,"imation":10048,"\u0120granted":10049,"\u0120Hosp":10050,"\u0120pipe":10051,"atching":10052,"\u0120saving":10053,"TAR":10054,"forward":10055,"Pack":10056,"DEV":10057,"\u0120plenty":10058,"rier":10059,"\u0120href":10060,"\u0120neu":10061,"\u0120dioxide":10062,"\u0120opposite":10063,"\u0120Arts":10064,"\u0120approved":10065,"\u0120lever":10066,"\u0120menu":10067,"\u0120merg":10068,"\u0120Requ":10069,"\u0120realm":10070,"\u0120Heart":10071,"\u0120accessibility":10072,"athy":10073,"\u0120sheet":10074,"\u0120segment":10075,"Project":10076,"\u0120Those":10077,"\u0120[\"":10078,"ordination":10079,"Import":10080,"entral":10081,"Mus":10082,"3333":10083,"\u0120suit":10084,"\u00e7\u013d":10085,"\u01201991":10086,"\u0120Product":10087,"\u0120legislation":10088,"\u0120Lo":10089,"\u0120CD":10090,"\u0120Examples":10091,"ogg":10092,"\u0120wheel":10093,"\u0120sensory":10094,"inson":10095,"isted":10096,"flamm":10097,"\u0120Mil":10098,"ships":10099,"\u0120prevents":10100,"\u0120neighborhood":10101,"\u0120Level":10102,"priv":10103,"\u0120waiting":10104,"\u0120responsibilities":10105,"\u0120suscept":10106,"\u00ce\u00b5":10107,"\u00e5\u0131\u00af":10108,"\u0120lect":10109,"(@":10110,"Policy":10111,"ycle":10112,"\u0120perception":10113,"\u0120Py":10114,"sylvania":10115,"\u0120sentence":10116,"\u0120coins":10117,"\u0120fuels":10118,"\u0120Analysis":10119,"\u0120passeng":10120,"riving":10121,"\u0120fats":10122,"ITE":10123,"\u0120controvers":10124,"\u0120File":10125,"\u0120wider":10126,"\u0120preparing":10127,"bot":10128,"Arg":10129,"\u0120aids":10130,"\u0120Games":10131,"Return":10132,"\u0120filters":10133,"allenges":10134,"\u0120analyzing":10135,"}\",":10136,"effective":10137,"\u0120\"%":10138,"Mark":10139,"Offset":10140,"rolled":10141,"\u0120Current":10142,"\u0120marks":10143,"Height":10144,"modules":10145,"\u0120buf":10146,"\u0120fault":10147,"\u0120UV":10148,"global":10149,"\u0120pose":10150,"outheast":10151,"\u0120putting":10152,"RESULT":10153,"\u0120van":10154,"Num":10155,"\u00e5\u0128":10156,"asters":10157,"\u0120integral":10158,"LOC":10159,"\u0120meth":10160,"iger":10161,"\u0120Spe":10162,"oted":10163,"\u0120Enh":10164,"plicate":10165,"\u0120simultane":10166,"\u0120none":10167,"\u0120corresponding":10168,"erer":10169,"\u0120coat":10170,"plugin":10171,"\u0120dipl":10172,"Widget":10173,"Even":10174,"tab":10175,"\u0120Face":10176,"\u0120utilize":10177,"\u0120preferred":10178,"\u0120tension":10179,"worth":10180,"Document":10181,"\u0120III":10182,"\u0120proceed":10183,"\u0120Cam":10184,"\u0120reverse":10185,"\u0120fosters":10186,"\u0120mm":10187,"Track":10188,"\u0120enthusi":10189,"imm":10190,"\u0120diagnosed":10191,"\u0120lots":10192,"\u0120ranging":10193,"\u0120Opt":10194,"\u0120employee":10195,"pip":10196,"\u0120meditation":10197,"opol":10198,"\u0120encouraged":10199,"arer":10200,"asty":10201,"\u0120creatures":10202,"\u0120Obs":10203,"\u0120detected":10204,"Po":10205,"\u0120Sir":10206,"powered":10207,"\u0120humidity":10208,"ko":10209,"\u0120asp":10210,"owers":10211,"\u0120league":10212,"\u0120exceed":10213,"\u0120engines":10214,"\u00d1\u0129":10215,"!!":10216,"\u0120declared":10217,"\u012033":10218,"otton":10219,"\u0120fee":10220,"\u0120forecast":10221,"\u0120organs":10222,"\u0120fishing":10223,"\u0120Source":10224,"depth":10225,"\u0120investments":10226,"ctl":10227,"\u0120seat":10228,"race":10229,"\u0120Online":10230,"\u0120Learn":10231,"NUM":10232,"\u0120delivered":10233,"\u0120investors":10234,"\u01201993":10235,"\u0120authentic":10236,"thritis":10237,"\u0120clock":10238,"\u0120losing":10239,"\u0120scr":10240,"TS":10241,"\u0120Select":10242,"\u0120insulin":10243,"iva":10244,"\u0120emphasis":10245,"\u0120acquired":10246,"\u0120($":10247,"\u0120encryption":10248,"\u0120automation":10249,"\u0120mobility":10250,"uris":10251,"\u010a\u0120\u0120\u0120\u0120\u010a\u0120\u0120\u0120":10252,"\u0120pictures":10253,"mediate":10254,"font":10255,"\u0120Index":10256,"\u0120satellite":10257,"ressing":10258,"Process":10259,"\u0120mirr":10260,"\u0120arrived":10261,"percent":10262,"\u0120Number":10263,"\u00e4\u00bc":10264,"vard":10265,"\u0120Pur":10266,"iotic":10267,"rog":10268,"enum":10269,">/":10270,"\u0120Camb":10271,"\u0120officers":10272,"\u0120Boston":10273,"\u0120execution":10274,"\u0120adjustments":10275,"\u0120wisdom":10276,"omes":10277,"\u0120Yet":10278,"\u0120Try":10279,"\u0120necessarily":10280,"\u0120cooperation":10281,"\u0120spots":10282,"\u0120Command":10283,"wall":10284,"'m":10285,"\u0120establishing":10286,"\u0120municipal":10287,"\u0120Contin":10288,"\u0120edition":10289,"Black":10290,"perm":10291,"\u0120minimizing":10292,"\u0120AC":10293,"\u0120measuring":10294,"VI":10295,"\u0120LO":10296,"FER":10297,"cr":10298,"roduction":10299,"\u0120incident":10300,"\u0120towns":10301,"\u0120Ur":10302,"\u0120celebrate":10303,"\u0120logic":10304,"\u0120Material":10305,"\u0120vertical":10306,"ateway":10307,"\u0120flows":10308,"KE":10309,"\u0120handler":10310,"\u0120Indigenous":10311,"\u00c3\u00a2":10312,"\u0120Agricult":10313,"\u0120Prim":10314,"argo":10315,"CONT":10316,"i\u00c3\u00b3n":10317,"\u0120CONSTRAINT":10318,"ashes":10319,"users":10320,"\u0120actors":10321,"\u0120anticip":10322,"Nd":10323,"\u0120mineral":10324,"\u0120PO":10325,"\u0120Fund":10326,"\u0120memb":10327,"rigger":10328,"\u0120UP":10329,"ohyd":10330,"collect":10331,"\u0120innovations":10332,"\u0120Prom":10333,"\u0120delve":10334,"NET":10335,"\u0120compound":10336,"\u0120accidents":10337,"Expect":10338,"pection":10339,"\u0120entity":10340,"\u0120Monitor":10341,"\u0120feels":10342,"\u0120Parliament":10343,"\u0120proto":10344,"\u0120initiative":10345,"\u0120metals":10346,"Dep":10347,"\u0120outbreak":10348,"\u0120staying":10349,"MC":10350,"\u0120bin":10351,"\u0120Christmas":10352,"goto":10353,"GS":10354,"super":10355,"dl":10356,"\u0120wound":10357,"\u0120Box":10358,"TV":10359,"\u0120estate":10360,"reprene":10361,"\u0120Wales":10362,"Expl":10363,"\u0120developments":10364,"USE":10365,"\u0120wasn":10366,"shape":10367,"ttp":10368,"\u0120lifes":10369,"\u0120Iran":10370,"unctions":10371,"earing":10372,"\u0120physics":10373,"hs":10374,"imum":10375,"\u0120asking":10376,"agon":10377,"=>":10378,"ictionary":10379,"\u0120recept":10380,"Entry":10381,"\u0120addressed":10382,"\u00ce\u00bd":10383,"\u0120disk":10384,"tools":10385,"\u0120cup":10386,"\u0120Sat":10387,"oli":10388,"\u0120trip":10389,"\u0120drawn":10390,"qview":10391,"PACK":10392,"\u0120borders":10393,"()),":10394,"\u0120warming":10395,"archy":10396,"\u0120formula":10397,"\u0120Sciences":10398,"rink":10399,"aya":10400,"iro":10401,"holder":10402,"\u0120conversations":10403,"\u0120Stat":10404,"best":10405,"\u0120##":10406,"\u0120disabilities":10407,"pull":10408,"otive":10409,"eyond":10410,"\u0120pest":10411,"total":10412,"\u0120aband":10413,"\u0120signature":10414,"\u0120confirmed":10415,"Description":10416,"pie":10417,"\u0120spark":10418,"atial":10419,"isticated":10420,"YY":10421,"\u0120showc":10422,"\u0120behavioral":10423,"\u0120pH":10424,"\u0120Korea":10425,"\u0120Amazon":10426,"\u0120connecting":10427,"\u0120celebrated":10428,"AMP":10429,"teen":10430,"LOCK":10431,"Local":10432,"ivities":10433,"Through":10434,"\u0120Study":10435,"\u0120Less":10436,"uy":10437,"\u0120Supp":10438,"\u0120Enter":10439,"244":10440,"feed":10441,"fg":10442,"auto":10443,"orses":10444,"\u0120matrix":10445,"Today":10446,"amber":10447,"\u0120glucose":10448,"\u0120React":10449,"acles":10450,"\u0120tracks":10451,"Parent":10452,"\u0120supportive":10453,"\u0120gardens":10454,"JS":10455,"\u0120forming":10456,"\u0120ctx":10457,"LD":10458,"live":10459,"\u0120knew":10460,"np":10461,"\u0120Move":10462,"each":10463,"%)":10464,"](#":10465,"stats":10466,"READ":10467,"\u0120microb":10468,"\u0120awarded":10469,"\u0120exhibit":10470,"\u0120ske":10471,"\u0120acknowled":10472,"\u0120decay":10473,"Connect":10474,"\u0120defend":10475,"hal":10476,"2006":10477,"UST":10478,"tests":10479,"obile":10480,"\u0120merely":10481,"\u0120undert":10482,"OB":10483,"space":10484,"\u0120WARRANTIES":10485,"\u00e0\u00ae":10486,"\u0120batt":10487,"\u0120Coast":10488,"complete":10489,"RIPT":10490,"\u0120resid":10491,"RS":10492,"\u0120organisms":10493,"\u0120Four":10494,"apped":10495,"\u0120Mean":10496,"\u0120utf":10497,"\u0120chat":10498,"\u0120prev":10499,"\u00f0\u0141":10500,"\u0120Assess":10501,"\u0120emotion":10502,"Diff":10503,"icode":10504,"aque":10505,"\u0120asset":10506,"\u0120400":10507,"\u0120feat":10508,"\u0120Pennsylvania":10509,"\u0120barrier":10510,"iances":10511,"\u0120Resources":10512,"\u0120Wall":10513,"Make":10514,"setup":10515,"\u0120Ram":10516,"\u0120consistently":10517,"HA":10518,"\u0120grains":10519,"\u0120accompan":10520,"\u0120highlighting":10521,"ello":10522,"DD":10523,"\u0120execute":10524,"umni":10525,"\u0120boot":10526,"Position":10527,"\u0120adapted":10528,"\u0120Pen":10529,"\u0120Team":10530,"\u0120Angeles":10531,"Custom":10532,"\u0120origins":10533,"ographical":10534,"\u0120Aud":10535,"\u0120cab":10536,"proxy":10537,"\u0120collaborative":10538,"\u0120les":10539,"timeout":10540,"\u0120Where":10541,"\u0120hazards":10542,"Cell":10543,"\u0120flower":10544,"\u0120Rom":10545,"\u0120alike":10546,"RY":10547,"erly":10548,"\u0120finds":10549,"\u012034":10550,"late":10551,"\u0120personality":10552,"\u0120gun":10553,"\u0120victory":10554,"\u0120factory":10555,"\u0120Dutch":10556,"mkdir":10557,"\u00e2\u0122\u013b,":10558,"GC":10559,"screen":10560,"\u0120degrad":10561,"cerning":10562,"\u0120counsel":10563,"\u0120mic":10564,"\u0120optional":10565,"\u0120pace":10566,"\u0120colleagues":10567,"\u0120Among":10568,"\u0120burning":10569,"hire":10570,"\u0120observations":10571,"\u0120presentation":10572,"\u0120Though":10573,"\u0120HIV":10574,"VALUES":10575,"\u0120reform":10576,"INST":10577,"\u0120saved":10578,"\u0120contexts":10579,"etary":10580,"\u0120Ent":10581,"\u0120Fore":10582,"quir":10583,"\u0120migration":10584,"plates":10585,"\u0120faces":10586,"zero":10587,"\u0120revenue":10588,"\u0120inline":10589,"ima":10590,";&":10591,"\u0120Sar":10592,"\u0120abnormal":10593,"Tree":10594,"\u0120grows":10595,"LP":10596,"\u0120respectively":10597,"\u0120residential":10598,"\u0120registered":10599,"\u0120shock":10600,"\u0120quiet":10601,"\u0120universal":10602,"John":10603,"\u0120investing":10604,"\u0120fold":10605,"\u0120uniform":10606,"\u0120Aff":10607,"ucket":10608,"\"}":10609,"\u0120forg":10610,"\u0120adm":10611,"\u0120sculpt":10612,"\u0120investigation":10613,"\u0120bonds":10614,"\u0120athletes":10615,"\u0120danger":10616,"Furthermore":10617,"Public":10618,"\u0120vocabulary":10619,"\u0120Gr":10620,"Non":10621,"cessary":10622,"bris":10623,"advant":10624,"zy":10625,"uation":10626,"\u0120winning":10627,"\u0120Treatment":10628,"\u0120Mind":10629,"\u0120Bang":10630,"math":10631,"[@":10632,"\u0120currency":10633,"\u0120unw":10634,"ymph":10635,"eted":10636,"\u0120MO":10637,"\u0120Battle":10638,"2010":10639,"\u0120Pri":10640,"\u0120Hot":10641,"\u0120Hor":10642,"kit":10643,"\u0120promising":10644,"\u0120alumin":10645,"obuf":10646,"Selector":10647,"aware":10648,"IA":10649,"\u0120ru":10650,"ourage":10651,"\u0120Update":10652,"\u0120Solar":10653,"\u0120thr":10654,"\u0120entering":10655,"\u0120executive":10656,"\u0120mapping":10657,"\u0120severity":10658,"\u0120absence":10659,"\u012065":10660,"\u0120destruction":10661,"\u0120appreciate":10662,"\u0120involvement":10663,"hw":10664,"\u0120analytics":10665,".'":10666,"\u0120exhaust":10667,"\u0120zones":10668,"\u0120carrying":10669,"\u0120movie":10670,"\u0120gone":10671,"\u0120therapeutic":10672,"SW":10673,"\u0120obesity":10674,"\u0120chrom":10675,"\u0120circulation":10676,"\u0120Moon":10677,"olves":10678,"\u0120Word":10679,"Close":10680,"\u0120hole":10681,"\u0120restaur":10682,"\u0120Ohio":10683,"disc":10684,"aus":10685,"\u0120holes":10686,"NdEx":10687,"peror":10688,"adder":10689,"\u0120propag":10690,"rary":10691,"derive":10692,"\u0120dimensions":10693,"\u012048":10694,"\u0120Game":10695,"\u0120motivation":10696,"\u0120sophisticated":10697,"arser":10698,"\u0120disaster":10699,"java":10700,"lications":10701,"lower":10702,"initial":10703,"\u0120gaming":10704,"\u0120python":10705,"\u0120complicated":10706,"\u0120adopt":10707,"\u0120interpretation":10708,"\u0120Holy":10709,"6666":10710,"ipt":10711,"\u0120lake":10712,"\u0120nose":10713,"\u0120Constitution":10714,"\u0120cav":10715,"Timeout":10716,"\u0120HTTP":10717,"events":10718,"\u0120numer":10719,"\u0120SQL":10720,"\u0120modules":10721,"\u0120claimed":10722,"lab":10723,"\u0120harder":10724,"ador":10725,"\u00d1\u0123\u00d1\u0124":10726,"awa":10727,"\u0120Bitcoin":10728,"\u0120trading":10729,"ABILITY":10730,"\u0120Different":10731,"rug":10732,"Lim":10733,"\u0120superior":10734,"\u0120separated":10735,"kube":10736,"\u0120accounting":10737,"Func":10738,"Op":10739,"\u0120laid":10740,"/)":10741,"\u0120Supreme":10742,"Location":10743,"\u0120retail":10744,"\u0120Ken":10745,"GA":10746,"Task":10747,"\u0120\"\",":10748,"\u0120'-":10749,"\u0120Config":10750,"\u0120View":10751,"FORM":10752,"\u0120legisl":10753,"\u0120durability":10754,"\u0120Questions":10755,"\u0120photograph":10756,"bus":10757,"\u0120fatty":10758,"profile":10759,"\u0120mistakes":10760,"\u0120adaptation":10761,"\u0120Pack":10762,"\u0120colonial":10763,"\u0109\u0109\u0109":10764,"\u0120victims":10765,"\u0120disappe":10766,"callback":10767,"\u0120Fest":10768,"Gen":10769,"\u0120dream":10770,"\u0120Way":10771,"\u0120Michigan":10772,"\u0120Portug":10773,"asive":10774,"\u0120Effect":10775,"\u0120humanity":10776,"Opt":10777,"\u0120archae":10778,"elligent":10779,"\u0120equally":10780,"\u0120neighb":10781,"\u0120lands":10782,"\u00e2\u0122\u013a":10783,"\u0120utility":10784,"connection":10785,"\u0120aging":10786,"reens":10787,"\u0120viruses":10788,"\u0120converted":10789,"\u0120Sand":10790,"\u0120poison":10791,"\u0120Mur":10792,"\u0120proof":10793,"INFO":10794,"\u00d0\u00be\u00d0\u00b2":10795,"\u0120officer":10796,"\u00e8\u00a6":10797,"actors":10798,"\u0120dentist":10799,"\u0120classical":10800,"\u0120Queen":10801,"\u0120[];":10802,"\u0120Georgia":10803,"\u0120utilized":10804,"\u0120holistic":10805,"schema":10806,"\u0120governance":10807,"\u0120safer":10808,"\u0120harness":10809,"yan":10810,"\u0120inspire":10811,"storage":10812,"Please":10813,"\u0120Image":10814,"serial":10815,"\u0120libraries":10816,"\u0120restrictions":10817,"agen":10818,"\u0120diagnostic":10819,"\u0120Corpor":10820,"Children":10821,"\u0120restoration":10822,"\u0120hybrid":10823,"\u0120moderate":10824,"\u0120likelihood":10825,"dig":10826,"\u0120vector":10827,"World":10828,"\u0120Mid":10829,"gments":10830,"\u0120surgical":10831,"\u0120metadata":10832,"\u012042":10833,"iest":10834,"iological":10835,"\u0120cust":10836,"Pop":10837,"\u0120worker":10838,"WR":10839,"\u0120irrig":10840,"dup":10841,"ifiers":10842,"\u0120loan":10843,"liest":10844,"\u0120neural":10845,"\u00c4\u0129":10846,"\u0120Therapy":10847,"\u0120unusual":10848,"\u0120classic":10849,"\u0120nob":10850,"ixel":10851,"adium":10852,"\u0120comprom":10853,"Que":10854,"elfare":10855,"\u0120Benefits":10856,"Found":10857,"\u0120utilizing":10858,"\u0120warrant":10859,"SU":10860,"\u0120integrating":10861,"\u0120empathy":10862,"\u0120decreased":10863,"\u0120weapons":10864,"\u0120meets":10865,"\u0120satisfaction":10866,"\u0120consumed":10867,"\u0120automated":10868,"Fields":10869,"isations":10870,"\u0120covering":10871,"ogram":10872,"otion":10873,"\u0120vel":10874,"PN":10875,"Ps":10876,"\u0120Script":10877,"\u0120Agency":10878,"rule":10879,"\u0120mindfulness":10880,"Only":10881,"member":10882,"\u0120falling":10883,"imp":10884,"ruit":10885,"rb":10886,"\u0120confident":10887,"\u00e2\u0136\u0122":10888,"\u0120Jul":10889,"\u0120quarter":10890,"\u00e5\u00b8":10891,"\u0120Columbia":10892,"\u0120municipality":10893,"\u0120transmit":10894,"License":10895,"asant":10896,"\u0120fever":10897,"\u0120logging":10898,"\u0120tone":10899,"ridges":10900,"\u0120puzz":10901,"\u0120designated":10902,"\u00e6\u0140":10903,"\u0120wellness":10904,"ricted":10905,"\u0120fo":10906,"\u0120Microsoft":10907,"\u0120candidate":10908,"\u0120acting":10909,"grid":10910,"\u00e6\u00b3":10911,"\u0120programme":10912,"\u0120Exec":10913,"\u0120vaccines":10914,"\u0120Love":10915,"\u0125\u00bd":10916,"\u0120Pain":10917,"\u0120principal":10918,"Template":10919,"ANG":10920,"\u0120axis":10921,"\u00d7\u013b\u00d7":10922,"\u0120Iss":10923,"\u0120Array":10924,"ader":10925,"aniel":10926,"ials":10927,"\u0120reveals":10928,"\u0120Tri":10929,"kens":10930,"\u0120LED":10931,"oples":10932,"\u0120maybe":10933,"\u0120apt":10934,"\u0120reputation":10935,"\u0120acceler":10936,"\u0120Buddh":10937,"\u0120Ven":10938,"atility":10939,"\u0120husband":10940,"arts":10941,"Orig":10942,"hr":10943,"\u0120incent":10944,"\u0120bias":10945,"heimer":10946,"\u01201989":10947,"\u0120Dam":10948,"WE":10949,"\u00e4\u00ba\u0128":10950,"eras":10951,"\u0120indigenous":10952,"\u0120hall":10953,"\u0120ups":10954,"\u0120biom":10955,"\u0120cm":10956,"DROP":10957,"\u0120nitrogen":10958,"acher":10959,"\u010d\u010a\u0120\u0120\u0120\u0120":10960,"\u0120racial":10961,"\u0120frameworks":10962,"\u0120Mental":10963,"Second":10964,"Provider":10965,"\u0120Pay":10966,"\u0120absolute":10967,"\u0120Own":10968,"About":10969,"\u0120\u00e2\u0122\u00a6":10970,"\u0120unlock":10971,"volume":10972,"\u0120Matt":10973,"\u0120chest":10974,"alm":10975,"\u0120payments":10976,"/\"":10977,"\u0120Tele":10978,"\u0120indeed":10979,"\u0120equality":10980,"uv":10981,"\u0120moments":10982,"\u0120adj":10983,"\u0120consistency":10984,"\u0120Help":10985,"\u0120assembly":10986,"\u0120emphasizes":10987,"\u0120preserving":10988,"\u0120Mars":10989,"\u0120jQuery":10990,"\u0120illegal":10991,"ais":10992,"\u0120calories":10993,"\u0120lens":10994,"\u0120cycles":10995,"\u0120Place":10996,"\u0120fluctu":10997,"\u0120deployment":10998,"arters":10999,"images":11000,"esium":11001,"/#":11002,"\u0120Ec":11003,"\u0120plus":11004,"\u010d\u010a\u0120\u0120\u0120\u0120\u0120":11005,"\u0120neutral":11006,"\u0120aggreg":11007,"\u0120affordable":11008,"Settings":11009,"\u0120contribution":11010,"\u0120architectural":11011,"Row":11012,"\u0120Custom":11013,"lif":11014,"\u0120crown":11015,"\u0120societies":11016,"\u0120Ren":11017,"Del":11018,"\u0120ADD":11019,"\u0120gast":11020,"lem":11021,"GB":11022,"\u0120IV":11023,"\u0120kube":11024,"\u0120plugin":11025,"ili":11026,"\u0120blind":11027,"\u0120raising":11028,"\u010a\u0120\u0120\u0120\u0120\u0120\u0120\u0120\u0120\u0120\u0120\u0120\u0120\u0120\u0120\u0120\u0120\u0120\u0120\u0120\u0120\u0120\u0120\u0120\u0120\u0120\u0120\u0120\u0120\u0120\u0120\u0120\u0120\u0120\u0120\u0120\u0120\u0120\u0120\u0120\u0120\u0120\u0120\u0120\u0120\u0120\u0120\u0120\u0120\u0120\u0120\u0120\u0120\u0120\u0120\u0120\u0120":11029,"driver":11030,"\u0120bees":11031,"\u00e3\u0122\u0123":11032,"\u0120prolong":11033,"heets":11034,"\u0120papers":11035,"blem":11036,"\u0120blend":11037,"ila":11038,"player":11039,"\u0120knows":11040,"\u0120anywhere":11041,"irth":11042,"tags":11043,"\u0120reset":11044,"ni":11045,"fficiency":11046,"\u0120embrace":11047,"\u0120Clin":11048,"estion":11049,"lined":11050,"aven":11051,"%,":11052,"\u0120wearing":11053,"\u0120calculate":11054,"\u00e6\u0138\u0129":11055,"\u0120trick":11056,"\u0120scheme":11057,"\u0120crew":11058,"ulus":11059,"\u0120publication":11060,"\u0120chair":11061,"\u0120prohib":11062,"\u0120debris":11063,"\u0120varies":11064,"vance":11065,"\u010a\u0120\u0120\u0120\u0120\u0120\u0120\u0120\u0120\u0120\u0120\u0120\u0120\u0120\u0120\u0120\u0120\u0120\u0120\u0120\u0120\u0120":11066,"\u0120Map":11067,"NE":11068,"irms":11069,"600":11070,"\u0120overview":11071,"\u0120Licensed":11072,"MIN":11073,"telling":11074,"adel":11075,"berry":11076,"\u0120neur":11077,"\u0120Football":11078,"\u0120nurt":11079,"eh":11080,"\u0120ox":11081,"anted":11082,"including":11083,"\u0120lists":11084,"\u0120Finally":11085,"\u0120dependent":11086,"\u0120gaps":11087,"xff":11088,"\u0120hydro":11089,"stic":11090,"\u0120guarantee":11091,"\u0120absorb":11092,"\u0120indicating":11093,"redit":11094,"\u0120judge":11095,"\u0120coc":11096,"repo":11097,"\u0120MIT":11098,"full":11099,"\u0120manufacturer":11100,"\u0120panic":11101,"\u0120differ":11102,"uset":11103,"\u0120oldest":11104,"\u0120penal":11105,"Rule":11106,"\u0120wine":11107,"\u0120fell":11108,"taining":11109,"strings":11110,"\u0120boy":11111,"ownt":11112,"\u0120opens":11113,"\u0120railway":11114,"\u0120concerning":11115,"BD":11116,"namespace":11117,"\u0120tempor":11118,"\u0120opts":11119,"mond":11120,"alter":11121,"\u0120Next":11122,"MOD":11123,"\u0120reviews":11124,"Float":11125,"\u0120tourism":11126,"MASK":11127,"\u0120cybersecurity":11128,"\u0120analys":11129,"habilit":11130,"\u0120interior":11131,"\u0120photo":11132,"\u0120persistent":11133,"\u0120Exp":11134,"you":11135,"??":11136,"\u0120operated":11137,"\u0120Innov":11138,"\u0120\u0120\u0120\u0120\u0120\u0120\u0120\u0120\u0120\u0120\u0120\u0120\u0120\u0120\u0120\u0120\u0120\u0120\u0120":11139,"'):":11140,"\u0120convenient":11141,"\u0120AL":11142,"\u0120Ari":11143,"\u0120Jac":11144,"Vir":11145,"apply":11146,"otherapy":11147,"\u0120Organization":11148,"\u0120joints":11149,"\u0120passage":11150,"\u0120fraud":11151,"\u0120Navy":11152,"\u0120hormones":11153,"CREMENT":11154,"Sum":11155,"diction":11156,"\u0120experimental":11157,"\u0120borrow":11158,"\u0120Should":11159,"reset":11160,"]*":11161,"Str":11162,"\u0120printed":11163,"\u0120Ott":11164,"erts":11165,"\u0120globally":11166,"hard":11167,"}/${":11168,"\u0120Dar":11169,"\u00e4\u00b8\u00ba":11170,"acent":11171,"\u0120'%":11172,"\u0120Three":11173,"cmp":11174,"\u0120Implement":11175,"\u0120pregnant":11176,"\u00cf\u0125":11177,"\u0120stuff":11178,"rosion":11179,"\u0120inherent":11180,"sur":11181,"aining":11182,"Vec":11183,"igma":11184,"/\\":11185,"gevity":11186,"\u0120lie":11187,"platform":11188,"\u0120essence":11189,"xford":11190,"mi":11191,"si":11192,"Device":11193,"\u0120minute":11194,"Fat":11195,"\u0120cryptocur":11196,"GN":11197,"\u0120enforcement":11198,"\u0120AT":11199,"\u0120estimate":11200,"\u0120orders":11201,"username":11202,".\u00e2\u0122\u013b":11203,"BI":11204,"prise":11205,"\u0120checking":11206,"handler":11207,"\u0120county":11208,"\u0120columns":11209,"Click":11210,"\u0120mil":11211,"BL":11212,"\u0120Small":11213,"\u0120Princ":11214,"ansas":11215,"\u0120Quality":11216,"\u0120controlling":11217,"\u0120circular":11218,"\u0120suffered":11219,"results":11220,"record":11221,"initely":11222,"try":11223,"2009":11224,"parser":11225,"\u0120isolation":11226,"\u0120namespace":11227,"\u0120settlement":11228,"\u0120Cond":11229,"\u0120reflection":11230,"\u0120snap":11231,"\u0120cort":11232,"\u0120explores":11233,"\u0120EV":11234,"green":11235,"}'":11236,"\u0120Always":11237,"Sk":11238,"\u0120repet":11239,"\u0120reflecting":11240,"\u00c3\u00ba":11241,"\u012055":11242,"\u0120Example":11243,"\u0120mathematical":11244,"[:":11245,"\u0120Physical":11246,"relation":11247,"\u0120Element":11248,"\u0120IoT":11249,"\u0120females":11250,"\u0120resc":11251,"\u0120controller":11252,"Obj":11253,"\u0120designers":11254,"\u0120aged":11255,"abeth":11256,"Look":11257,"\u0120Little":11258,"\u0120trouble":11259,"\u0120Ult":11260,"aska":11261,"\u0120hunting":11262,"\u0120cond":11263,"east":11264,"\u0120gentle":11265,"sa":11266,"\u0120whatever":11267,"enabled":11268,"\u0120Li":11269,"consc":11270,"\u0120spl":11271,"\u0120Administration":11272,"\u0120\u00ea":11273,"\u012037":11274,"Len":11275,"\u0120Intelligence":11276,"\u0120practition":11277,"\u0124\u00ac":11278,"ucky":11279,"\u0120administrative":11280,"\u0120recall":11281,"FE":11282,"\u0120tons":11283,"\u0120\u00d0\u00b2":11284,"\u0120CA":11285,"\u0120quantity":11286,"\u0120Pu":11287,"\u0120absorption":11288,"\u0120Series":11289,"\u0120enemy":11290,"hew":11291,"\u0120insulation":11292,"\u0120corporate":11293,"rypted":11294,"itarian":11295,"\u0120dialogue":11296,"\u0120bigger":11297,"errors":11298,"owner":11299,"\u0120Who":11300,"\u0120tar":11301,"\u0120doubt":11302,"kwargs":11303,"\u0120alignment":11304,"\u0120universities":11305,"\u0120Sund":11306,"attribute":11307,"\u0120oxid":11308,"English":11309,"\u0120validation":11310,"\u0120biology":11311,"\u0120ordered":11312,"\u0120combine":11313,"\u0120Islands":11314,"\u0120phosph":11315,"\u0120(%":11316,"\u0120Policy":11317,"\u0120recognizing":11318,"\u0120screening":11319,"esides":11320,"\u0120dies":11321,"bat":11322,"ysical":11323,"\u0120displayed":11324,"\u0120duty":11325,"\u0120cater":11326,"\u0120gly":11327,"\u0120Parent":11328,"URCE":11329,"endment":11330,"\u0120cd":11331,"\u0120folder":11332,"\u0120preservation":11333,"Callback":11334,"route":11335,"\u0120copies":11336,"Dat":11337,"\u0120Naz":11338,"commun":11339,"iors":11340,"\u0120babies":11341,"foot":11342,"acco":11343,"\u0120scenario":11344,"ductive":11345,"\u0120establishments":11346,"Where":11347,"\u0120charging":11348,"\u0120Jun":11349,"\u0120Choose":11350,"\u0120inhabit":11351,"\u0120\u010a\u0120":11352,"\u0120steam":11353,"\u0120fur":11354,"\u0120realize":11355,"\u0120tube":11356,"\u0120happening":11357,"ieval":11358,"\u0120occas":11359,"\u0120mosqu":11360,"Interface":11361,"\u0120therapies":11362,"\u0120establishment":11363,"Educ":11364,"\u0120pestic":11365,"ders":11366,"mentia":11367,"Mut":11368,"\u0120theories":11369,"\u0120physically":11370,"\u0120Liter":11371,"\u0120Practice":11372,"\u0120assistant":11373,"\u0120producer":11374,"\u0120indicated":11375,"\u0120Hospital":11376,"\u0120inputs":11377,"\u0120rend":11378,"\u0120pipeline":11379,"chor":11380,"COL":11381,"\u0120honey":11382,"mentation":11383,"\u00e8\u00bf\u013b":11384,"\"],":11385,"'])":11386,"estinal":11387,"\u0120bott":11388,"\u00d9\u0129":11389,"\u0120120":11390,"LES":11391,"\u0120gases":11392,"\u0120finger":11393,"icking":11394,"\u0120inn":11395,"\u0120chlor":11396,"\u0120operator":11397,"\u0120Lee":11398,"\u0120withdraw":11399,"\u0120transferred":11400,"\u0120authentication":11401,"\u0120toys":11402,"HOST":11403,"\u0120observation":11404,"Enter":11405,"\u0120integrate":11406,"\u0120phrase":11407,"MMENT":11408,"owners":11409,"vin":11410,"\u0120paras":11411,"conscious":11412,"\u0120classified":11413,"\u0120Linux":11414,"\u0120households":11415,"\u0120pollut":11416,"\u0120Core":11417,"\u0120candidates":11418,"\u0120Sometimes":11419,"\u0120Atlantic":11420,"yt":11421,"\u0120Short":11422,"\u0120harsh":11423,"\u0120divine":11424,"\u0120royal":11425,"\u0120entertainment":11426,"uple":11427,"\u0120tropical":11428,"\u0120linear":11429,"\u0120Due":11430,"\u00e3\u0123\u00ae":11431,"\u0120Justice":11432,"aug":11433,"\u0120continuously":11434,"\u0120Temple":11435,"Unit":11436,"\u0120Corn":11437,"Assert":11438,"ffe":11439,"gency":11440,"PP":11441,"\u0120volcan":11442,"ju":11443,"\u0120versatile":11444,"Search":11445,";</":11446,"pin":11447,"\u0120mur":11448,"\u0120molecular":11449,"formed":11450,"Year":11451,"\u0120\u00c2\u00a3":11452,"\u0120rocks":11453,"rection":11454,"\u0120Master":11455,"application":11456,"\u0120pp":11457,"\u0120supposed":11458,"agraph":11459,"\u0120Johnson":11460,"\u0120Jersey":11461,"\u00e5\u00be":11462,"\u0120incorrect":11463,"\u0120environmentally":11464,"cking":11465,"\u0120packages":11466,"\u0120hem":11467,"gov":11468,"kl":11469,"\u0120stones":11470,"origin":11471,"\u0120returning":11472,"\u010a\u0109\u0109\u0109\u0109\u0109\u0109\u0109":11473,"\u010a\u0120\u0120\u0120\u0120\u0120\u0120\u0120\u0120\u0120\u0120\u0120\u0120\u0120\u0120\u0120\u0120\u0120\u0120\u0120\u0120":11474,"resses":11475,"\u0120dishes":11476,"\u00c3\u0142":11477,"\u0120assume":11478,"oys":11479,"\u0120adverse":11480,"\u00d1\u0138":11481,"\u0120oils":11482,"\u0120varied":11483,"2007":11484,"\u0120transformed":11485,"\u0120Original":11486,"\u0120Jim":11487,"plicit":11488,"\"));":11489,"\u0120perceived":11490,"returns":11491,"bury":11492,"Sprintf":11493,"\u0120stabil":11494,"\u01201988":11495,"vals":11496,"\u00c4\u012f":11497,"necessary":11498,"\u0120MS":11499,"\u0120sizeof":11500,"\u0120characteristic":11501,"\u0120complement":11502,"invalid":11503,"\u0120{};":11504,"Values":11505,"\u0120qualities":11506,"\u0120landscapes":11507,"\u0120specify":11508,"otional":11509,"\u0120Emb":11510,"BER":11511,"\u0120taxes":11512,"\u0120synthetic":11513,"iral":11514,"001":11515,"\u0120tract":11516,"\u0120Major":11517,"\u0120passes":11518,"\u0120inclusion":11519,"\u0120Gar":11520,"arming":11521,"\u0120campaigns":11522,"\u0120simultaneously":11523,"\u0120caught":11524,"\u0120,[":11525,"\u0120attended":11526,"COUNT":11527,"\u0120doors":11528,"Account":11529,"fc":11530,"plet":11531,"\u0120vig":11532,"\u0120strongly":11533,"Transaction":11534,"ailing":11535,"\u0120flash":11536,"FEREN":11537,"\u0120temp":11538,"edit":11539,"\u0120Cert":11540,"\u0120Cancer":11541,"\u0120Emer":11542,"\u0120prey":11543,"\u00d8\u00b3":11544,"\u00e7\u00bd":11545,"\u0120province":11546,"nament":11547,"\u0120PDF":11548,"\u0120magazine":11549,"\u0120theoret":11550,"\u0120bacterial":11551,"\u00c2\u00b7":11552,"\u0120ADHD":11553,"\u0120Chief":11554,"aints":11555,"\u00d0\u00b7":11556,"svg":11557,"\u0120OS":11558,"\u0120overl":11559,"=(":11560,"xFF":11561,"\u0120Philipp":11562,"Lock":11563,"parts":11564,"yr":11565,"\u0120AUTO":11566,"\u0120Struct":11567,"FLAGS":11568,"manager":11569,"Global":11570,"\u0120rows":11571,"\u0120Fed":11572,"\u0120farms":11573,"\u0120Ep":11574,"apor":11575,"\u0120Remove":11576,"\u0120partial":11577,"\u0120tags":11578,"\u0120engineer":11579,"\u0120triggers":11580,"\u0120basketball":11581,"\u0120shorter":11582,"\u0120relaxation":11583,"\u0120girl":11584,"\u0120overs":11585,"thod":11586,"component":11587,"\u0120lifespan":11588,"\u0120essentially":11589,"=/":11590,"sis":11591,"\u0120requirement":11592,"objects":11593,"\u0120ham":11594,"\u0120captiv":11595,"\u0120struggling":11596,"unning":11597,"opic":11598,"\u0120sug":11599,"\u0120dive":11600,"\u0120ster":11601,"\u01201930":11602,"nia":11603,"\u0120fed":11604,"\u0120trait":11605,"\u0120Summer":11606,"TIME":11607,"\u0120semi":11608,"brew":11609,"Own":11610,"short":11611,"\u0120chicken":11612,"\u0120males":11613,"untu":11614,"\u00e6\u0130":11615,"\u0120Never":11616,"border":11617,"\u0120coordination":11618,"phones":11619,"\u0120Jo":11620,"\u0120headers":11621,"alyt":11622,"inois":11623,"\u0120descript":11624,"sample":11625,"eness":11626,"Job":11627,"\u0120abstract":11628,"extend":11629,"\u0120overlook":11630,"\u0120dairy":11631,"\u0120Far":11632,"BM":11633,"\u00cf\u0123":11634,"achuset":11635,"REIGN":11636,"\u0120spray":11637,"\u0120pel":11638,"phrase":11639,"achusetts":11640,"=\"../../":11641,"\u0120considerable":11642,"\u0120qualified":11643,"\u0120chemistry":11644,"\u0120swimming":11645,"\u0120estimates":11646,"\u0120circle":11647,"ocolate":11648,"\u0120Kh":11649,"\u0120actor":11650,"Because":11651,
[...]
